{
  "version": "1.0",
  "truncation": null,
  "padding": null,
  "added_tokens": [
    {
      "id": 0,
      "content": "<pad>",
      "single_word": false,
      "lstrip": false,
      "rstrip": false,
      "normalized": false,
      "special": true
    },
    {
      "id": 1,
      "content": "<unk>",
      "single_word": false,
      "lstrip": false,
      "rstrip": false,
      "normalized": false,
      "special": true
    },
    {
      "id": 2,
      "content": "<bos>",
      "single_word": false,
      "lstrip": false,
      "rstrip": false,
      "normalized": false,
      "special": true
    },
    {
      "id": 3,
      "content": "<eos>",
      "single_word": false,
      "lstrip": false,
      "rstrip": false,
      "normalized": false,
      "special": true
    },
    {
      "id": 4,
      "content": "<newline>",
      "single_word": false,
      "lstrip": false,
      "rstrip": false,
      "normalized": false,
      "special": true
    },
    {
      "id": 5,
      "content": "0",
      "single_word": false,
      "lstrip": false,
      "rstrip": false,
      "normalized": false,
      "special": true
    },
    {
      "id": 6,
      "content": "1",
      "single_word": false,
      "lstrip": false,
      "rstrip": false,
      "normalized": false,
      "special": true
    },
    {
      "id": 7,
      "content": "2",
      "single_word": false,
      "lstrip": false,
      "rstrip": false,
      "normalized": false,
      "special": true
    },
    {
      "id": 8,
      "content": "3",
      "single_word": false,
      "lstrip": false,
      "rstrip": false,
      "normalized": false,
      "special": true
    },
    {
      "id": 9,
      "content": "4",
      "single_word": false,
      "lstrip": false,
      "rstrip": false,
      "normalized": false,
      "special": true
    },
    {
      "id": 10,
      "content": "5",
      "single_word": false,
      "lstrip": false,
      "rstrip": false,
      "normalized": false,
      "special": true
    },
    {
      "id": 11,
      "content": "6",
      "single_word": false,
      "lstrip": false,
      "rstrip": false,
      "normalized": false,
      "special": true
    },
    {
      "id": 12,
      "content": "7",
      "single_word": false,
      "lstrip": false,
      "rstrip": false,
      "normalized": false,
      "special": true
    },
    {
      "id": 13,
      "content": "8",
      "single_word": false,
      "lstrip": false,
      "rstrip": false,
      "normalized": false,
      "special": true
    },
    {
      "id": 14,
      "content": "9",
      "single_word": false,
      "lstrip": false,
      "rstrip": false,
      "normalized": false,
      "special": true
    },
    {
      "id": 32768,
      "content": "<mask>",
      "single_word": false,
      "lstrip": false,
      "rstrip": false,
      "normalized": false,
      "special": true
    }
  ],
  "normalizer": {
    "type": "NFKC"
  },
  "pre_tokenizer": {
    "type": "Metaspace",
    "replacement": "▁",
    "prepend_scheme": "always",
    "split": true
  },
  "post_processor": null,
  "decoder": {
    "type": "Metaspace",
    "replacement": "▁",
    "prepend_scheme": "always",
    "split": true
  },
  "model": {
    "type": "BPE",
    "dropout": null,
    "unk_token": "<unk>",
    "continuing_subword_prefix": null,
    "end_of_word_suffix": null,
    "fuse_unk": false,
    "byte_fallback": false,
    "ignore_merges": false,
    "vocab": {
      "<pad>": 0,
      "<unk>": 1,
      "<bos>": 2,
      "<eos>": 3,
      "<newline>": 4,
      "0": 5,
      "1": 6,
      "2": 7,
      "3": 8,
      "4": 9,
      "5": 10,
      "6": 11,
      "7": 12,
      "8": 13,
      "9": 14,
      "\t": 15,
      "\u001f": 16,
      "!": 17,
      "\"": 18,
      "#": 19,
      "$": 20,
      "%": 21,
      "&": 22,
      "'": 23,
      "(": 24,
      ")": 25,
      "*": 26,
      "+": 27,
      ",": 28,
      "-": 29,
      ".": 30,
      "/": 31,
      ":": 32,
      ";": 33,
      "<": 34,
      "=": 35,
      ">": 36,
      "?": 37,
      "@": 38,
      "A": 39,
      "B": 40,
      "C": 41,
      "D": 42,
      "E": 43,
      "F": 44,
      "G": 45,
      "H": 46,
      "I": 47,
      "J": 48,
      "K": 49,
      "L": 50,
      "M": 51,
      "N": 52,
      "O": 53,
      "P": 54,
      "Q": 55,
      "R": 56,
      "S": 57,
      "T": 58,
      "U": 59,
      "V": 60,
      "W": 61,
      "X": 62,
      "Y": 63,
      "Z": 64,
      "[": 65,
      "\\": 66,
      "]": 67,
      "^": 68,
      "_": 69,
      "`": 70,
      "a": 71,
      "b": 72,
      "c": 73,
      "d": 74,
      "e": 75,
      "f": 76,
      "g": 77,
      "h": 78,
      "i": 79,
      "j": 80,
      "k": 81,
      "l": 82,
      "m": 83,
      "n": 84,
      "o": 85,
      "p": 86,
      "q": 87,
      "r": 88,
      "s": 89,
      "t": 90,
      "u": 91,
      "v": 92,
      "w": 93,
      "x": 94,
      "y": 95,
      "z": 96,
      "{": 97,
      "|": 98,
      "}": 99,
      "~": 100,
      "": 101,
      "ఁ": 102,
      "ం": 103,
      "ః": 104,
      "అ": 105,
      "ఆ": 106,
      "ఇ": 107,
      "ఈ": 108,
      "ఉ": 109,
      "ఊ": 110,
      "ఋ": 111,
      "ఌ": 112,
      "ఎ": 113,
      "ఏ": 114,
      "ఐ": 115,
      "ఒ": 116,
      "ఓ": 117,
      "ఔ": 118,
      "క": 119,
      "ఖ": 120,
      "గ": 121,
      "ఘ": 122,
      "ఙ": 123,
      "చ": 124,
      "ఛ": 125,
      "జ": 126,
      "ఝ": 127,
      "ఞ": 128,
      "ట": 129,
      "ఠ": 130,
      "డ": 131,
      "ఢ": 132,
      "ణ": 133,
      "త": 134,
      "థ": 135,
      "ద": 136,
      "ధ": 137,
      "న": 138,
      "ప": 139,
      "ఫ": 140,
      "బ": 141,
      "భ": 142,
      "మ": 143,
      "య": 144,
      "ర": 145,
      "ఱ": 146,
      "ల": 147,
      "ళ": 148,
      "ఴ": 149,
      "వ": 150,
      "శ": 151,
      "ష": 152,
      "స": 153,
      "హ": 154,
      "ఽ": 155,
      "ా": 156,
      "ి": 157,
      "ీ": 158,
      "ు": 159,
      "ూ": 160,
      "ృ": 161,
      "ౄ": 162,
      "ె": 163,
      "ే": 164,
      "ై": 165,
      "ొ": 166,
      "ో": 167,
      "ౌ": 168,
      "్": 169,
      "ౖ": 170,
      "ౘ": 171,
      "ౙ": 172,
      "ౠ": 173,
      "ౡ": 174,
      "ౢ": 175,
      "౦": 176,
      "౧": 177,
      "౨": 178,
      "౩": 179,
      "౪": 180,
      "౫": 181,
      "౬": 182,
      "౭": 183,
      "౮": 184,
      "౯": 185,
      "౹": 186,
      "౼": 187,
      "౽": 188,
      "▁": 189,
      "▁ప": 190,
      "ని": 191,
      "ార": 192,
      "్ర": 193,
      "▁క": 194,
      "న్": 195,
      "▁వ": 196,
      "▁మ": 197,
      "స్": 198,
      "ర్": 199,
      "▁అ": 200,
      "లు": 201,
      "ంద": 202,
      "▁స": 203,
      "ne": 204,
      "▁చ": 205,
      "లో": 206,
      "్య": 207,
      "ను": 208,
      "కు": 209,
      "▁త": 210,
      "ంచ": 211,
      "క్": 212,
      "గా": 213,
      "ు.": 214,
      "ల్": 215,
      "న్న": 216,
      "ట్": 217,
      "▁ర": 218,
      "ి.": 219,
      "రి": 220,
      "▁ప్ర": 221,
      "▁న": 222,
      "తు": 223,
      "ాల": 224,
      "▁ఆ": 225,
      "li": 226,
      "new": 227,
      "line": 228,
      "<new": 229,
      "line>": 230,
      "ిన": 231,
      "ించ": 232,
      "ండ": 233,
      "▁ద": 234,
      "ారు.": 235,
      "▁బ": 236,
      "త్": 237,
      "▁చే": 238,
      "ంట": 239,
      "▁ఉ": 240,
      "▁ఇ": 241,
      "ంత": 242,
      "కి": 243,
      "డు": 244,
      "▁వి": 245,
      "రు": 246,
      "▁గ": 247,
      "ప్": 248,
      "ము": 249,
      "ాయ": 250,
      "▁జ": 251,
      "ంది.": 252,
      "లి": 253,
      "తి": 254,
      "▁ఎ": 255,
      "టి": 256,
      "డి": 257,
      "మా": 258,
      "పు": 259,
      "ార్": 260,
      "లా": 261,
      "▁ని": 262,
      "ంగా": 263,
      "ద్": 264,
      "చ్": 265,
      "▁ఈ": 266,
      "వా": 267,
      "టు": 268,
      "సు": 269,
      "▁ల": 270,
      "ది": 271,
      "ంలో": 272,
      "ష్": 273,
      "స్త": 274,
      "ంగ": 275,
      "▁శ": 276,
      "▁కా": 277,
      "స్తు": 278,
      "▁య": 279,
      "చ్చ": 280,
      "▁భ": 281,
      "సి": 282,
      "నే": 283,
      "ిత": 284,
      "▁రా": 285,
      "గు": 286,
      "▁స్": 287,
      "్యా": 288,
      "డా": 289,
      "న్ని": 290,
      "డ్": 291,
      "వు": 292,
      "ందు": 293,
      "తో": 294,
      "▁హ": 295,
      "వి": 296,
      "ారు": 297,
      "క్ష": 298,
      "నా": 299,
      "▁తె": 300,
      "ప్ప": 301,
      "రా": 302,
      "యా": 303,
      "మ్": 304,
      "టీ": 305,
      "క్క": 306,
      "ిక": 307,
      "▁చె": 308,
      "os": 309,
      "న్నారు.": 310,
      "నికి": 311,
      "యు": 312,
      "ళ్": 313,
      "▁ఏ": 314,
      "▁<": 315,
      "os>": 316,
      "▁మా": 317,
      "▁ఒ": 318,
      "ేద": 319,
      "ంది": 320,
      "ేశ": 321,
      "ైన": 322,
      "▁ము": 323,
      "▁సం": 324,
      "▁కొ": 325,
      "▁సి": 326,
      "▁కో": 327,
      "కా": 328,
      "ారి": 329,
      "దు": 330,
      "మి": 331,
      "▁.": 332,
      "త్ర": 333,
      "ంచి": 334,
      "▁ఫ": 335,
      "▁పె": 336,
      "▁పా": 337,
      "రో": 338,
      "్వ": 339,
      "్రా": 340,
      "▁కూ": 341,
      "▁వె": 342,
      "లను": 343,
      "ట్ట": 344,
      "▁ను": 345,
      "లకు": 346,
      "పో": 347,
      "కో": 348,
      "ారం": 349,
      "ల్ల": 350,
      "▁మీ": 351,
      "ల్లో": 352,
      "ష్ట": 353,
      "ప్పు": 354,
      "▁వా": 355,
      "▁నా": 356,
      "ంప": 357,
      "గి": 358,
      "▁మరి": 359,
      "త్త": 360,
      "్రి": 361,
      "▁ఒక": 362,
      "..": 363,
      "ంతో": 364,
      "ాయి.": 365,
      "మె": 366,
      "▁1": 367,
      "నీ": 368,
      "డు.": 369,
      "పా": 370,
      "▁తీ": 371,
      "▁పో": 372,
      "ద్ద": 373,
      "▁గు": 374,
      "ంబ": 375,
      "▁కే": 376,
      "న్నా": 377,
      "్రీ": 378,
      "▁కూడా": 379,
      "▁సా": 380,
      "▁వే": 381,
      "డం": 382,
      "కొ": 383,
      "▁ట": 384,
      "▁లో": 385,
      "▁చేయ": 386,
      "▁డ": 387,
      "లు,": 388,
      "ించి": 389,
      "ండి": 390,
      "ంగ్": 391,
      "▁నిర్": 392,
      "పై": 393,
      "▁కు": 394,
      "గ్": 395,
      "▁అయ": 396,
      "▁2": 397,
      "▁నే": 398,
      "బ్": 399,
      "ాన": 400,
      "జు": 401,
      "ంటి": 402,
      "యం": 403,
      "ంటే": 404,
      "▁ఉన్న": 405,
      "▁పరి": 406,
      "▁మరియు": 407,
      "సిన": 408,
      "పి": 409,
      "▁సమ": 410,
      "▁రె": 411,
      "ాలు": 412,
      "ట్లు": 413,
      "ంటు": 414,
      "మైన": 415,
      "లీ": 416,
      "ూర్": 417,
      "చు": 418,
      "▁<b": 419,
      "eos>": 420,
      "▁<eos>": 421,
      "▁<bos>": 422,
      "యో": 423,
      "సం": 424,
      "సీ": 425,
      "ట్టు": 426,
      "▁వ్య": 427,
      "▁బా": 428,
      "జ్": 429,
      "త్వ": 430,
      "ారా": 431,
      "ంధ": 432,
      "రీ": 433,
      "స్థ": 434,
      "పీ": 435,
      "త్య": 436,
      "వే": 437,
      "▁-": 438,
      "లే": 439,
      "▁దా": 440,
      "సుకు": 441,
      "ద్ధ": 442,
      "ించిన": 443,
      "▁(": 444,
      "మే": 445,
      "ద్య": 446,
      "యి": 447,
      ".<newline>": 448,
      "▁వచ్చ": 449,
      "▁మొ": 450,
      "ధ్య": 451,
      "రం": 452,
      "ంది.<newline>": 453,
      "చి": 454,
      "▁చూ": 455,
      "▁తెలి": 456,
      "▁కార": 457,
      "▁సిని": 458,
      "తా": 459,
      "ించారు.": 460,
      "▁ప్రభ": 461,
      "▁అని": 462,
      "▁అవ": 463,
      "▁తన": 464,
      "▁లేద": 465,
      "దా": 466,
      "స్తున్న": 467,
      "కే": 468,
      "బు": 469,
      "ాయి": 470,
      "▁గా": 471,
      "▁రో": 472,
      "▁చెప్ప": 473,
      "జా": 474,
      "రణ": 475,
      "టర్": 476,
      "▁'": 477,
      "బా": 478,
      "▁వై": 479,
      "తం": 480,
      "నం": 481,
      "సా": 482,
      "▁చి": 483,
      "ట్టి": 484,
      "▁ఓ": 485,
      "ంద్ర": 486,
      "▁సినిమా": 487,
      "మ్మ": 488,
      "▁చేశ": 489,
      "ందుకు": 490,
      "షన్": 491,
      "▁ధ": 492,
      "▁ప్రా": 493,
      "▁లే": 494,
      "ప్ర": 495,
      "ాలని": 496,
      "▁దీ": 497,
      "▁రూ": 498,
      "ండు": 499,
      "ప్పుడు": 500,
      "ంట్": 501,
      "▁పు": 502,
      "క్కు": 503,
      "జీ": 504,
      "ెస్": 505,
      "▁అను": 506,
      "▁భా": 507,
      "ితే": 508,
      "దే": 509,
      "ధిక": 510,
      "▁సు": 511,
      "ాలను": 512,
      "▁సీ": 513,
      "వర్": 514,
      "▁నుంచి": 515,
      "యన": 516,
      "▁వీ": 517,
      "కీ": 518,
      "ర్శ": 519,
      "వల": 520,
      "తున్న": 521,
      "▁\"": 522,
      "చే": 523,
      "ాలా": 524,
      "▁పే": 525,
      "రే": 526,
      "క్ర": 527,
      "▁తా": 528,
      "▁భార": 529,
      "య్య": 530,
      "వీ": 531,
      "భి": 532,
      "ిల్": 533,
      "ందని": 534,
      "▁ప్రభు": 535,
      "▁నె": 536,
      "▁ఉండ": 537,
      "ించు": 538,
      "రించ": 539,
      "▁విష": 540,
      "ండా": 541,
      "▁తెలు": 542,
      "డానికి": 543,
      "▁మహ": 544,
      "కోవ": 545,
      "ులు": 546,
      "▁వారి": 547,
      "ండ్": 548,
      "▁నీ": 549,
      "సే": 550,
      "తీ": 551,
      "▁ష": 552,
      "మీ": 553,
      "ఖ్య": 554,
      "▁శా": 555,
      "▁మే": 556,
      "శ్": 557,
      "ను.": 558,
      "▁స్థ": 559,
      "మని": 560,
      "ధి": 561,
      "▁ఆయన": 562,
      "▁పార్": 563,
      "వాత": 564,
      "▁మె": 565,
      "ఆర్": 566,
      "ెక్": 567,
      "లతో": 568,
      "రకు": 569,
      "▁పొ": 570,
      "an": 571,
      "న్య": 572,
      "▁మూ": 573,
      "రుగు": 574,
      "▁కలి": 575,
      "▁చాలా": 576,
      "▁రాష్ట": 577,
      "▁రాజ": 578,
      "ప్పటి": 579,
      "▁ప్రభుత్వ": 580,
      "▁అధిక": 581,
      "ారు.<newline>": 582,
      "▁ప్రక": 583,
      "ళ్ల": 584,
      "▁మార్": 585,
      "▁మన": 586,
      "▁కోసం": 587,
      "\\n": 588,
      "ాడు.": 589,
      "క్తి": 590,
      "డీ": 591,
      "▁అనే": 592,
      "▁వ్యా": 593,
      "▁కి": 594,
      "కుండా": 595,
      "దేశ": 596,
      "మో": 597,
      "▁చేసి": 598,
      "▁ప్రతి": 599,
      "డ్డి": 600,
      "ెట్": 601,
      "▁పి": 602,
      "▁అంద": 603,
      "▁సమా": 604,
      "ర్య": 605,
      "ం.": 606,
      "వహ": 607,
      "▁జరి": 608,
      "ంక": 609,
      "ొక్క": 610,
      "ర్థ": 611,
      "▁ఇది": 612,
      "వ్": 613,
      "▁కార్య": 614,
      "ళ్ళ": 615,
      "▁20": 616,
      "టా": 617,
      "▁ఖ": 618,
      "▁డి": 619,
      "శా": 620,
      "▁అంత": 621,
      "▁అయితే": 622,
      "ణా": 623,
      "▁యా": 624,
      "▁చేసిన": 625,
      "ంత్రి": 626,
      "న్స్": 627,
      "ిత్ర": 628,
      "్యూ": 629,
      "▁శ్రీ": 630,
      "గిన": 631,
      "కూ": 632,
      "▁రోజు": 633,
      "త్స": 634,
      "ుల": 635,
      "▁టీ": 636,
      "▁దేశ": 637,
      "ఫ్": 638,
      "▁సె": 639,
      "భా": 640,
      "డే": 641,
      "▁తి": 642,
      "ించే": 643,
      "▁పార్టీ": 644,
      "▁యు": 645,
      "బంధ": 646,
      "జి": 647,
      "వచ్చ": 648,
      "▁రాష్ట్ర": 649,
      "ారని": 650,
      "రించి": 651,
      "స్తో": 652,
      "▁జీ": 653,
      "▁అత": 654,
      "▁రి": 655,
      "లలో": 656,
      "లేద": 657,
      "తే": 658,
      "▁మాత్ర": 659,
      "in": 660,
      "▁స్ట": 661,
      "▁మి": 662,
      "యంలో": 663,
      "మున": 664,
      "▁మో": 665,
      "ంటూ": 666,
      "▁వర్": 667,
      "▁3": 668,
      "ల్లి": 669,
      "ఎస్": 670,
      "ాలి.": 671,
      "▁ది": 672,
      "ది.": 673,
      "▁ఉంటు": 674,
      "▁t": 675,
      "స్తున్నారు.": 676,
      "రూ": 677,
      "!<newline>": 678,
      "ృష్": 679,
      "▁జా": 680,
      "ాలి": 681,
      "ట్ల": 682,
      "గే": 683,
      "▁కానీ": 684,
      "తులు": 685,
      "▁తో": 686,
      "గ్ర": 687,
      "▁చేశారు.": 688,
      "స్య": 689,
      "దు.": 690,
      "పె": 691,
      "▁అభి": 692,
      "స్తే": 693,
      "▁ఐ": 694,
      "▁ఆమె": 695,
      "▁క్": 696,
      "▁మొద": 697,
      "స్తూ": 698,
      "క్కువ": 699,
      "▁అందు": 700,
      "ర్మ": 701,
      "లంగా": 702,
      "▁పని": 703,
      "▁పూర్": 704,
      "▁క్ర": 705,
      "జే": 706,
      "ిల్లా": 707,
      "వారం": 708,
      "హా": 709,
      "స్తా": 710,
      "▁మీరు": 711,
      "లోని": 712,
      "▁లా": 713,
      "ేవ": 714,
      "▁బీ": 715,
      "er": 716,
      "▁ద్వ": 717,
      "తూ": 718,
      "వ్వ": 719,
      "ధా": 720,
      "▁తీసుకు": 721,
      "▁యొక్క": 722,
      "▁తర్": 723,
      "▁మంది": 724,
      "ట్లా": 725,
      "▁సో": 726,
      "▁తమ": 727,
      "స్ట": 728,
      "ాలకు": 729,
      "▁జిల్లా": 730,
      "డంతో": 731,
      "00": 732,
      "భ్య": 733,
      "▁రెండు": 734,
      "హ్": 735,
      "▁బి": 736,
      "▁సర్": 737,
      "డిన": 738,
      "▁ఉప": 739,
      "ధాన": 740,
      "కర్": 741,
      "ం,": 742,
      "బ్బ": 743,
      "▁సూ": 744,
      "▁పోలీ": 745,
      "ైనా": 746,
      "▁సంద": 747,
      "▁తర్వాత": 748,
      "▁ప్రజ": 749,
      "▁రై": 750,
      "▁పై": 751,
      "కపో": 752,
      "▁ఇచ్చ": 753,
      "యోగ": 754,
      "ని,": 755,
      "▁ముఖ్య": 756,
      "యే": 757,
      "▁లక్ష": 758,
      "గొ": 759,
      "▁ఉంది.": 760,
      "▁నుండి": 761,
      "▁కల": 762,
      "కులు": 763,
      "ar": 764,
      "ంపు": 765,
      "క్కడ": 766,
      "on": 767,
      "డ్డ": 768,
      "▁శి": 769,
      "▁చిత్ర": 770,
      "షి": 771,
      "▁అలా": 772,
      "త్తు": 773,
      "సులు": 774,
      "కాల": 775,
      "ణి": 776,
      "టన": 777,
      "కాశ": 778,
      "త్తి": 779,
      "▁నిర్వహ": 780,
      "న్ను": 781,
      "▁5": 782,
      "▁మాట్లా": 783,
      "▁సంబంధ": 784,
      "ినా": 785,
      "వరి": 786,
      "▁ఏర్": 787,
      "▁మరో": 788,
      "ార్థ": 789,
      "ధార": 790,
      "ములు": 791,
      "గ్గ": 792,
      "▁కాల": 793,
      "▁హై": 794,
      "▁దు": 795,
      "న్నారు.<newline>": 796,
      "ద్ర": 797,
      "▁విజ": 798,
      "▁:": 799,
      "▁అన": 800,
      "▁వారు": 801,
      "▁ఎన్ని": 802,
      "ముల": 803,
      "తుంది.": 804,
      "▁ప్రభుత్వం": 805,
      "వేశ": 806,
      "దీ": 807,
      "వం": 808,
      "▁రూ.": 809,
      "▁ద్వారా": 810,
      "▁అది": 811,
      "▁తెలిప": 812,
      "ఎం": 813,
      "ేక": 814,
      "▁పెద్ద": 815,
      "స్తుంది.": 816,
      "▁తీసు": 817,
      "▁సహ": 818,
      "▁గ్రా": 819,
      "మార్": 820,
      "ందే": 821,
      "ుడు": 822,
      "▁ఎలా": 823,
      "es": 824,
      "▁కేంద్ర": 825,
      "త్మ": 826,
      "at": 827,
      "ందిన": 828,
      "▁లేదా": 829,
      "ు.<newline>": 830,
      "హి": 831,
      "▁తొ": 832,
      "▁స్ప": 833,
      "లంగాణ": 834,
      "ణం": 835,
      "▁మధ్య": 836,
      "▁హీ": 837,
      "మును": 838,
      "ంచు": 839,
      "న్నాడు.": 840,
      "ంబు": 841,
      "విత": 842,
      "▁ప్రత్య": 843,
      "▁తర": 844,
      "పాటు": 845,
      "▁4": 846,
      "▁మంత్రి": 847,
      "ించింది.": 848,
      "గో": 849,
      "కర": 850,
      "▁మంచి": 851,
      "▁చేసుకు": 852,
      "▁స్వ": 853,
      "▁ఆరో": 854,
      "ర్చ": 855,
      "ర్భ": 856,
      "▁ఘ": 857,
      "▁ప్రారం": 858,
      "▁కొన్ని": 859,
      "రె": 860,
      "?<newline>": 861,
      "▁గో": 862,
      "▁హా": 863,
      "బో": 864,
      "కె": 865,
      "సె": 866,
      "▁వు": 867,
      "టో": 868,
      "లుగు": 869,
      "దల": 870,
      "ళ్లు": 871,
      "▁గురించి": 872,
      "▁కొత్త": 873,
      "▁తెలంగాణ": 874,
      "▁ఆర్": 875,
      "▁పాటు": 876,
      "▁కార్": 877,
      "▁ఎన్నిక": 878,
      "▁అవస": 879,
      "▁ముందు": 880,
      "▁హీరో": 881,
      "▁రూప": 882,
      "▁అన్ని": 883,
      "▁దాని": 884,
      "నూ": 885,
      "ద్ధి": 886,
      "al": 887,
      "మై": 888,
      "తలు": 889,
      "తర": 890,
      "బాద్": 891,
      "▁బ్ర": 892,
      "▁వరకు": 893,
      "▁ఇప్పటి": 894,
      "▁గుర్": 895,
      "▁రే": 896,
      "▁విద్య": 897,
      "▁బ్యా": 898,
      "▁తే": 899,
      "▁ప్రారంభ": 900,
      "ండి.": 901,
      "్యం": 902,
      "▁కని": 903,
      "కున్న": 904,
      "▁కె": 905,
      "▁సై": 906,
      "▁ప్రే": 907,
      "స్థి": 908,
      "▁నాయ": 909,
      "త్రి": 910,
      "he": 911,
      "క్రమ": 912,
      "ల్ప": 913,
      "▁వచ్చి": 914,
      "ంత్ర": 915,
      "▁భూ": 916,
      "▁ప్రాంత": 917,
      "▁పూర్తి": 918,
      "▁ఎక్కువ": 919,
      "▁విధ": 920,
      "▁జగ": 921,
      "చార": 922,
      "ర్కొ": 923,
      "▁బె": 924,
      "▁ఇప్పుడు": 925,
      "ర్యా": 926,
      "తుల": 927,
      "టం": 928,
      "▁ఇలా": 929,
      "▁అవు": 930,
      "వృ": 931,
      "▁నేను": 932,
      "కం": 933,
      "▁ఒక్క": 934,
      "▁బు": 935,
      "▁అవకాశ": 936,
      "▁ఇక": 937,
      "▁తెలుగు": 938,
      "ారులు": 939,
      "▁గ్ర": 940,
      "దర్శ": 941,
      "▁ఉద్య": 942,
      "▁|": 943,
      "▁S": 944,
      "or": 945,
      "ంజ": 946,
      "▁అమ": 947,
      "▁ఉంట": 948,
      "యిన": 949,
      "▁ఫో": 950,
      "్లా": 951,
      "▁చేసే": 952,
      "▁సంస్థ": 953,
      "వై": 954,
      "స్తోంది.": 955,
      "తంగా": 956,
      "▁దర్శ": 957,
      "ీల": 958,
      "పంచ": 959,
      "స్ట్": 960,
      "జ్ఞ": 961,
      "▁అన్న": 962,
      "ళ్లి": 963,
      "సారి": 964,
      "▁గొ": 965,
      "▁నిర్ణ": 966,
      "▁వివ": 967,
      "▁కావ": 968,
      "▁చెందిన": 969,
      "▁న్య": 970,
      "▁యూ": 971,
      "▁దీని": 972,
      "▁పద": 973,
      "▁నెల": 974,
      "▁గత": 975,
      "ాయి.<newline>": 976,
      "is": 977,
      "క్స్": 978,
      "▁హి": 979,
      "▁ప్రస్తు": 980,
      "కొని": 981,
      "▁తప్ప": 982,
      "ారీ": 983,
      "చారం": 984,
      "లై": 985,
      "▁పెట్ట": 986,
      "▁పేరు": 987,
      "▁భాగ": 988,
      "...": 989,
      "నాలు": 990,
      "▁A": 991,
      "శ్వ": 992,
      "▁చంద్ర": 993,
      "▁కారణ": 994,
      "గల": 995,
      "▁కథ": 996,
      "వె": 997,
      "▁సమస్య": 998,
      "ందో": 999,
      "▁పరిస్థి": 1000,
      "లోకి": 1001,
      "ంగ్ర": 1002,
      "వత్స": 1003,
      "▁T": 1004,
      "బడి": 1005,
      "▁విడు": 1006,
      "▁వచ్చిన": 1007,
      "ంలోని": 1008,
      "▁వాటి": 1009,
      "లేదు.": 1010,
      "ను,": 1011,
      "లం": 1012,
      "హు": 1013,
      "మూ": 1014,
      "▁బో": 1015,
      "డియా": 1016,
      "▁ప్రత్యేక": 1017,
      "ృతి": 1018,
      "▁లేదు.": 1019,
      "▁మాత్రమే": 1020,
      "▁సమయంలో": 1021,
      "▁చిన్న": 1022,
      "▁దీంతో": 1023,
      "ఁడు": 1024,
      "మెంట్": 1025,
      "ణు": 1026,
      "▁పూ": 1027,
      "శ్ర": 1028,
      "▁వల్ల": 1029,
      "▁తెలిపారు.": 1030,
      "ధు": 1031,
      "పించ": 1032,
      "బీ": 1033,
      "డుతు": 1034,
      "▁వ్యక్": 1035,
      "▁మొత్త": 1036,
      "en": 1037,
      "ర్చు": 1038,
      "▁సందర్భ": 1039,
      "తీయ": 1040,
      "మ్మె": 1041,
      "ాన్ని": 1042,
      "▁దూ": 1043,
      "▁దే": 1044,
      "ంటర్": 1045,
      "ంశ": 1046,
      "చన": 1047,
      "ణ్": 1048,
      "▁మహి": 1049,
      "▁సంవత్స": 1050,
      "లుగా": 1051,
      "▁6": 1052,
      "శి": 1053,
      "▁తరు": 1054,
      "▁వద్ద": 1055,
      "▁చేస్తున్న": 1056,
      "నిక": 1057,
      "కరించ": 1058,
      "▁అస": 1059,
      "రిగి": 1060,
      "టుంబ": 1061,
      "▁ఫి": 1062,
      "్యే": 1063,
      "▁రెడ్డి": 1064,
      "ేషన్": 1065,
      "నర్": 1066,
      "▁పేర్కొ": 1067,
      "యత్": 1068,
      "▁బయ": 1069,
      "▁కాంగ్ర": 1070,
      "▁ఇవ్వ": 1071,
      "యన్": 1072,
      "కుల": 1073,
      "▁అధ్య": 1074,
      "గా,": 1075,
      "ర్టు": 1076,
      "▁జరుగు": 1077,
      "▁జన": 1078,
      "ంతి": 1079,
      "▁మీద": 1080,
      "దరా": 1081,
      "ము.": 1082,
      "▁కుటుంబ": 1083,
      "వ్ర": 1084,
      "▁నిర్మా": 1085,
      "గం": 1086,
      "▁ఉంటుంది.": 1087,
      "▁పర": 1088,
      "▁విడుదల": 1089,
      "్వర": 1090,
      "▁హె": 1091,
      "ాయం": 1092,
      "▁శు": 1093,
      "టె": 1094,
      "గ్య": 1095,
      "▁పలు": 1096,
      "నున్న": 1097,
      "పే": 1098,
      "స్తున్నా": 1099,
      "రోనా": 1100,
      "▁సాధ": 1101,
      "▁మహిళ": 1102,
      "చ్చి": 1103,
      "లపై": 1104,
      "టింగ్": 1105,
      "విధ": 1106,
      "నె": 1107,
      "యర్": 1108,
      "▁మీడియా": 1109,
      "▁s": 1110,
      "▁బాల": 1111,
      "▁చేసు": 1112,
      "ంపై": 1113,
      "▁వ్యవ": 1114,
      "▁ప్రధాన": 1115,
      "▁పాత్ర": 1116,
      "it": 1117,
      "్రో": 1118,
      "▁పాల్": 1119,
      "▁ఊ": 1120,
      "▁మాత్రం": 1121,
      "▁పట్ట": 1122,
      "▁విని": 1123,
      "బాబు": 1124,
      "క్షణ": 1125,
      "▁సరి": 1126,
      "డుతూ": 1127,
      "▁ఎదు": 1128,
      "▁వంటి": 1129,
      "ొక": 1130,
      "▁ప్రపంచ": 1131,
      "▁వార": 1132,
      "తన": 1133,
      "ానికి": 1134,
      "త్ప": 1135,
      "▁ఎంప": 1136,
      "జన": 1137,
      "▁తెలిసి": 1138,
      "ల్సి": 1139,
      "▁కేసు": 1140,
      "▁ప్రయత్": 1141,
      "▁ఉద్యో": 1142,
      "▁రాజకీ": 1143,
      "జేపీ": 1144,
      "ృత": 1145,
      "▁ఎమ్మె": 1146,
      "▁ఎవ": 1147,
      "▁భారీ": 1148,
      "▁వ్యక్తి": 1149,
      "▁.<newline>": 1150,
      "ూరు": 1151,
      "▁వర": 1152,
      "ృష్ణ": 1153,
      "▁తెలియ": 1154,
      "▁జరిగి": 1155,
      "బి": 1156,
      "▁కరోనా": 1157,
      "▁విషయం": 1158,
      "పోయి": 1159,
      "▁ప్రస్తుతం": 1160,
      "మంత్రి": 1161,
      "▁నగ": 1162,
      "ించడం": 1163,
      "కార": 1164,
      "నించ": 1165,
      "▁కాంగ్రెస్": 1166,
      "వన్": 1167,
      "▁మండ": 1168,
      "రాలు": 1169,
      "▁19": 1170,
      "ద్దు": 1171,
      "▁తీవ్ర": 1172,
      "▁చూడ": 1173,
      "▁అదే": 1174,
      "▁అంటే": 1175,
      "ల్స్": 1176,
      "▁7": 1177,
      "ినీ": 1178,
      "▁మూడు": 1179,
      "▁ఏర్పాటు": 1180,
      "▁విజయ": 1181,
      "▁పోలీసులు": 1182,
      "▁ప్రభా": 1183,
      "\"<newline>": 1184,
      "డె": 1185,
      "▁అన్నారు.": 1186,
      "ed": 1187,
      "▁సంగ": 1188,
      "ాలలో": 1189,
      "▁జగన్": 1190,
      "కెట్": 1191,
      "పూర్": 1192,
      "▁ఉత్త": 1193,
      "▁బీజేపీ": 1194,
      "హం": 1195,
      "ట్టుకు": 1196,
      "▁వార్": 1197,
      "తోంది.": 1198,
      "▁8": 1199,
      "▁పాల్గొ": 1200,
      "▁చు": 1201,
      "న్నీ": 1202,
      "▁ఎస్": 1203,
      "ra": 1204,
      "▁జీవిత": 1205,
      "త్వా": 1206,
      "ెడ్డి": 1207,
      "▁రంగ": 1208,
      "▁ఇం": 1209,
      "సన": 1210,
      "▁స్థా": 1211,
      "▁అర్": 1212,
      "కంగా": 1213,
      "▁M": 1214,
      "ాయని": 1215,
      "లోనే": 1216,
      "దరాబాద్": 1217,
      "▁రు": 1218,
      "స్సు": 1219,
      "▁సే": 1220,
      "▁జరిగిన": 1221,
      "▁10": 1222,
      "▁a": 1223,
      "▁రెండ": 1224,
      "టకు": 1225,
      "దం": 1226,
      "▁సర": 1227,
      "ందా": 1228,
      "ాలతో": 1229,
      "▁ఉపయోగ": 1230,
      "▁సీఎం": 1231,
      "కుడు": 1232,
      "▁వచ్చే": 1233,
      "ల్లు": 1234,
      "▁చేప": 1235,
      "ంతా": 1236,
      "▁సిద్ధ": 1237,
      "▁కొన": 1238,
      "దన": 1239,
      "▁సంఘ": 1240,
      "▁నో": 1241,
      "▁డా": 1242,
      "▁ప్రమా": 1243,
      "▁లి": 1244,
      "▁ఇతర": 1245,
      "▁!<newline>": 1246,
      "గానే": 1247,
      "▁అత్య": 1248,
      "వో": 1249,
      "▁పిల్ల": 1250,
      "▁ఛ": 1251,
      "ర్లు": 1252,
      "▁ఎంత": 1253,
      "▁ప్రశ్": 1254,
      "▁అమ్మ": 1255,
      "వారి": 1256,
      "దని": 1257,
      "స్తారు.": 1258,
      "▁కలిసి": 1259,
      "మం": 1260,
      "▁the": 1261,
      "లె": 1262,
      "▁!": 1263,
      "ృష్టి": 1264,
      "▁p": 1265,
      "క్షి": 1266,
      "జన్": 1267,
      "రుకు": 1268,
      "▁భారత": 1269,
      "నని": 1270,
      "వ్య": 1271,
      "డియో": 1272,
      "▁తరువాత": 1273,
      "▁కళ": 1274,
      "ంబర్": 1275,
      "ధారణ": 1276,
      "వులు": 1277,
      "▁హో": 1278,
      "▁తాజా": 1279,
      "▁సభ్య": 1280,
      "ంటున్న": 1281,
      "▁,": 1282,
      "▁గంట": 1283,
      "▁అవకాశం": 1284,
      "లువ": 1285,
      "తిని": 1286,
      "▁అవసరం": 1287,
      "▁రావ": 1288,
      "▁మొదటి": 1289,
      "el": 1290,
      "▁అనేక": 1291,
      "▁షా": 1292,
      "నో": 1293,
      "▁ఎన్": 1294,
      "▁201": 1295,
      "వచ్చు.": 1296,
      "ల్లీ": 1297,
      "▁కంప": 1298,
      "▁ప్రకట": 1299,
      "ంది,": 1300,
      "ట్టిన": 1301,
      "▁అలాగే": 1302,
      "▁అంటూ": 1303,
      "పర్": 1304,
      "▁శాఖ": 1305,
      "ou": 1306,
      "▁వెంట": 1307,
      "స్టు": 1308,
      "▁చర్య": 1309,
      "ంధ్ర": 1310,
      "పడి": 1311,
      "▁లై": 1312,
      "▁చేసింది.": 1313,
      "▁మాట": 1314,
      "▁పీ": 1315,
      "సీఆర్": 1316,
      "▁పంప": 1317,
      "హ్మ": 1318,
      "క్త": 1319,
      "స్క": 1320,
      "▁వారికి": 1321,
      "వృద్ధి": 1322,
      "▁m": 1323,
      "▁హైదరాబాద్": 1324,
      "చ్చు": 1325,
      "రిక": 1326,
      "ష్టం": 1327,
      "▁202": 1328,
      "▁R": 1329,
      "▁జో": 1330,
      "▁కలిగి": 1331,
      "డుగు": 1332,
      "▁చెబు": 1333,
      "▁యువ": 1334,
      "▁చో": 1335,
      "ించారు.<newline>": 1336,
      "▁చెప్పారు.": 1337,
      "ించడానికి": 1338,
      "నులు": 1339,
      "▁జూ": 1340,
      "జర్": 1341,
      "▁c": 1342,
      "▁అయిన": 1343,
      "▁సందర్భంగా": 1344,
      "క్షన్": 1345,
      "▁రామ": 1346,
      "ల్యే": 1347,
      "▁ధర": 1348,
      "▁అధ్యక్ష": 1349,
      "దో": 1350,
      "▁డై": 1351,
      "▁ఉన్నాయి.": 1352,
      "రగ": 1353,
      "▁క్రి": 1354,
      "▁గె": 1355,
      "పథ": 1356,
      "▁కార్యక్రమ": 1357,
      "▁టా": 1358,
      "బట్టి": 1359,
      "ము,": 1360,
      "క్ష్": 1361,
      "గర్": 1362,
      "నకు": 1363,
      "▁తయ": 1364,
      "▁సమావేశ": 1365,
      "సర్": 1366,
      "▁టి": 1367,
      ")<newline>": 1368,
      "డ్డు": 1369,
      "▁యి": 1370,
      "ేష": 1371,
      "▁నట": 1372,
      "ఫీ": 1373,
      "తున్నారు.": 1374,
      "▁కేసీఆర్": 1375,
      "▁ఉంటే": 1376,
      "మాన": 1377,
      "ముఖ": 1378,
      "▁ఎమ్మెల్యే": 1379,
      "ెను.": 1380,
      "పడ": 1381,
      "ెక్టర్": 1382,
      "నుక": 1383,
      "▁ఖా": 1384,
      "▁దేవ": 1385,
      "as": 1386,
      "గ్గు": 1387,
      "భు": 1388,
      "▁ట్ర": 1389,
      "వన": 1390,
      "ించుకు": 1391,
      "్యంలో": 1392,
      "స్వా": 1393,
      "▁సౌ": 1394,
      "▁కొనసా": 1395,
      "ంతు": 1396,
      "▁మ్యా": 1397,
      "రువు": 1398,
      "స్ప": 1399,
      "యిన్": 1400,
      "▁మొత్తం": 1401,
      "రు.": 1402,
      "రాల": 1403,
      "శ్చ": 1404,
      "▁పరిశ": 1405,
      "▁క్ష": 1406,
      "వారు": 1407,
      "▁9": 1408,
      "▁జే": 1409,
      "జె": 1410,
      "▁లె": 1411,
      "▁C": 1412,
      "▁నమో": 1413,
      "ముగా": 1414,
      "▁చిత్రం": 1415,
      "▁నేత": 1416,
      "షల్": 1417,
      "ించా": 1418,
      "ల్ని": 1419,
      "▁అయ్య": 1420,
      "యాన్ని": 1421,
      "▁ఇంటి": 1422,
      "▁నిజ": 1423,
      "▁N": 1424,
      "▁స్టార్": 1425,
      "▁అధికార": 1426,
      "▁ఇండి": 1427,
      "▁P": 1428,
      "బ్బు": 1429,
      "▁శ్ర": 1430,
      "▁కాదు.": 1431,
      "రికి": 1432,
      "▁కాని": 1433,
      "▁వైద్య": 1434,
      "am": 1435,
      "వంటి": 1436,
      "▁అర": 1437,
      "డుతున్న": 1438,
      "▁అధికారులు": 1439,
      "న్,": 1440,
      "▁అల": 1441,
      "▁మరింత": 1442,
      "▁ఆలో": 1443,
      "▁వస్తు": 1444,
      "ష్య": 1445,
      "▁చిత": 1446,
      "▁చేయడం": 1447,
      "రీక్ష": 1448,
      "మ్ము": 1449,
      "▁చంద్రబాబు": 1450,
      "▁మాన": 1451,
      "om": 1452,
      "▁అక్క": 1453,
      "ించాలని": 1454,
      "దిక": 1455,
      "▁కొంత": 1456,
      "భవ": 1457,
      "వచ్చు": 1458,
      "మర్శ": 1459,
      "మంలో": 1460,
      "▁చా": 1461,
      "ింది.": 1462,
      "▁దగ్గ": 1463,
      "▁ముఖ్యమంత్రి": 1464,
      "ad": 1465,
      "వంత": 1466,
      "యాలు": 1467,
      "▁మర": 1468,
      "▁శాతం": 1469,
      "స్త్ర": 1470,
      "యోజ": 1471,
      "చిన": 1472,
      "▁o": 1473,
      "▁మహా": 1474,
      "▁విద్యార్థ": 1475,
      "▁తల్లి": 1476,
      "▁స్వా": 1477,
      "▁వృ": 1478,
      "▁పాల": 1479,
      "▁ఉత్ప": 1480,
      "▁ప్రజా": 1481,
      "▁మాట్లాడుతూ": 1482,
      "▁చర్చ": 1483,
      "షా": 1484,
      "▁వ్యాప": 1485,
      "ినే": 1486,
      "▁తు": 1487,
      "▁సమాచారం": 1488,
      "పోయ": 1489,
      "▁w": 1490,
      "ic": 1491,
      "వుడ్": 1492,
      "▁అభివృద్ధి": 1493,
      "▁కమి": 1494,
      "▁ప్రకారం": 1495,
      "▁ఇప్పటికే": 1496,
      "▁తాను": 1497,
      "▁లేకుండా": 1498,
      "ట్స్": 1499,
      "▁స్థాయి": 1500,
      "పరి": 1501,
      "ధాని": 1502,
      "ెనీ": 1503,
      "le": 1504,
      "ారో": 1505,
      "డాది": 1506,
      "▁రాజకీయ": 1507,
      "▁దొ": 1508,
      "పతి": 1509,
      "మిక": 1510,
      "మంది": 1511,
      "నంద": 1512,
      "్రియ": 1513,
      "▁ఇద్ద": 1514,
      "▁రీ": 1515,
      "▁నేపథ": 1516,
      "ప్పుడ": 1517,
      "ల్సిన": 1518,
      "▁సొ": 1519,
      "▁అతని": 1520,
      "▁ఇందు": 1521,
      "▁వెల్ల": 1522,
      "▁ఉద": 1523,
      "▁విషయ": 1524,
      "▁కేవల": 1525,
      "▁పనిచే": 1526,
      "▁నాకు": 1527,
      "▁=": 1528,
      "▁బల": 1529,
      "లన": 1530,
      "▁వైర": 1531,
      "▁పరీక్ష": 1532,
      "▁థ": 1533,
      "ంతరం": 1534,
      "▁పాట": 1535,
      "వ్యా": 1536,
      "సూ": 1537,
      "జెక్": 1538,
      "కోవడం": 1539,
      "▁విషయంలో": 1540,
      "▁ఆర్థ": 1541,
      "డికి": 1542,
      "ెస్ట్": 1543,
      "▁గౌ": 1544,
      "హన": 1545,
      "▁కర్": 1546,
      "▁అమె": 1547,
      "▁అభ్య": 1548,
      "▁వ్యవహ": 1549,
      "▁b": 1550,
      "కరణ": 1551,
      "▁కంపెనీ": 1552,
      "▁అక్కడ": 1553,
      "బడిన": 1554,
      "మారు": 1555,
      "▁చేస్తున్నారు.": 1556,
      "▁జి": 1557,
      "▁వివా": 1558,
      "▁నియ": 1559,
      "టే": 1560,
      "ళి": 1561,
      "ఢి": 1562,
      "రోజు": 1563,
      "▁జె": 1564,
      "▁తెలిసిందే": 1565,
      "▁పాఠ": 1566,
      "▁తెర": 1567,
      "శు": 1568,
      "▁నిలి": 1569,
      "ద్ది": 1570,
      "▁లు": 1571,
      "▁I": 1572,
      "ంటారు.": 1573,
      "ion": 1574,
      "▁వీడియో": 1575,
      "▁ప్లా": 1576,
      "▁15": 1577,
      "టువంటి": 1578,
      "వార": 1579,
      "క్కి": 1580,
      "▁టై": 1581,
      "▁పోలీసు": 1582,
      "▁మారి": 1583,
      "దేశ్": 1584,
      "▁విమర్శ": 1585,
      "వాస": 1586,
      "ను.<newline>": 1587,
      "ాల్లో": 1588,
      "హిత": 1589,
      "▁ఆల": 1590,
      "వి.": 1591,
      "▁ఆర్థిక": 1592,
      "▁ఏమి": 1593,
      "▁వెళ్ల": 1594,
      "ఢిల్లీ": 1595,
      "▁భారత్": 1596,
      "▁స్త": 1597,
      "ing": 1598,
      "▁విచార": 1599,
      "▁సంబంధించిన": 1600,
      "ితో": 1601,
      "ీవుడ్": 1602,
      "▁చేయాలని": 1603,
      "▁విధంగా": 1604,
      "and": 1605,
      "▁న్యూ": 1606,
      "▁కాబట్టి": 1607,
      "▁వివిధ": 1608,
      "వర": 1609,
      "ణాలు": 1610,
      "దారు": 1611,
      "▁నేపథ్యంలో": 1612,
      "శాఖ": 1613,
      "ృష్ట": 1614,
      "▁అతి": 1615,
      "▁కేవలం": 1616,
      "▁బ్యాం": 1617,
      "▁చెప్పు": 1618,
      "క్టర్": 1619,
      "▁ఫలి": 1620,
      "▁బాగా": 1621,
      "ళ్ళు": 1622,
      "▁తక్కువ": 1623,
      "▁భావ": 1624,
      "పర": 1625,
      "లుపు": 1626,
      "▁ఏపీ": 1627,
      "▁అంది": 1628,
      "▁వెళ్": 1629,
      "▁అర్థ": 1630,
      "▁12": 1631,
      "▁తాజాగా": 1632,
      "భూ": 1633,
      "▁ఆరోగ్య": 1634,
      "▁ప్రజలు": 1635,
      "తె": 1636,
      "డు,": 1637,
      "▁విన": 1638,
      "▁వెంటనే": 1639,
      "▁పెట్టు": 1640,
      "▁సమీ": 1641,
      "టికి": 1642,
      "▁త్వర": 1643,
      "▁అంశ": 1644,
      "▁పోటీ": 1645,
      "▁ఇక్కడ": 1646,
      "▁ఆది": 1647,
      "త్వం": 1648,
      "ద్యా": 1649,
      "▁ప్రేమ": 1650,
      "ణ్య": 1651,
      "బె": 1652,
      "ప్పటికీ": 1653,
      "▁యో": 1654,
      "నుగో": 1655,
      "డో": 1656,
      "▁ఉండే": 1657,
      "▁డీ": 1658,
      "▁బొ": 1659,
      "▁ఇంత": 1660,
      "▁వేల": 1661,
      "డీపీ": 1662,
      "il": 1663,
      "▁పవన్": 1664,
      "▁సాధారణ": 1665,
      "కాలు": 1666,
      "డని": 1667,
      "మవు": 1668,
      "ణీ": 1669,
      "▁నిర్మ": 1670,
      "▁కోట్ల": 1671,
      "బాటు": 1672,
      "re": 1673,
      "▁వ్యక్తం": 1674,
      "▁కాదు": 1675,
      "▁తొలి": 1676,
      "టీఆర్": 1677,
      "తను": 1678,
      "▁చై": 1679,
      "▁రైతు": 1680,
      "ల్లా": 1681,
      "వడం": 1682,
      "▁?": 1683,
      "▁ఎంతో": 1684,
      "▁ఇంకా": 1685,
      "▁సేవ": 1686,
      "▁వెల్లడ": 1687,
      "ర్ర": 1688,
      "▁ఆస": 1689,
      "శాల": 1690,
      "▁కీల": 1691,
      "▁తిరిగి": 1692,
      "▁ప్రాజెక్": 1693,
      "▁గుర్త": 1694,
      "▁యె": 1695,
      "▁ఉందని": 1696,
      "ించాడు.": 1697,
      "▁ఇన్": 1698,
      "▁ఇదే": 1699,
      "తిలో": 1700,
      "▁తల": 1701,
      "హార": 1702,
      "ట.": 1703,
      "ల్,": 1704,
      "▁B": 1705,
      "▁ప్రి": 1706,
      "రావు": 1707,
      "టానికి": 1708,
      "▁ట్": 1709,
      "వుల": 1710,
      "▁ఫోన్": 1711,
      "్యు": 1712,
      "▁డే": 1713,
      "ీర్": 1714,
      "▁శరీ": 1715,
      "▁D": 1716,
      "▁దృష్టి": 1717,
      "ానం": 1718,
      "ాయా": 1719,
      "మన": 1720,
      "▁దె": 1721,
      "ంగళ": 1722,
      "లు.": 1723,
      "రూప": 1724,
      "▁వెంక": 1725,
      "▁మై": 1726,
      "▁చిత్రా": 1727,
      "<newline>-": 1728,
      "▁భర్": 1729,
      "▁ఏడాది": 1730,
      "ay": 1731,
      "ండె": 1732,
      "▁అంతే": 1733,
      "ంటా": 1734,
      "పాల": 1735,
      "▁#": 1736,
      "రంలో": 1737,
      "▁గల": 1738,
      "రెడ్డి": 1739,
      "చున్న": 1740,
      "టక": 1741,
      "▁మీకు": 1742,
      "▁తగ్గ": 1743,
      "▁ఇటీ": 1744,
      "ఆర్ఎస్": 1745,
      "▁పెరుగు": 1746,
      "నల్": 1747,
      "రికా": 1748,
      "▁సోషల్": 1749,
      "▁ఆధార": 1750,
      "ండ్ర": 1751,
      "▁సూచ": 1752,
      "వరణ": 1753,
      "▁పడి": 1754,
      "ేదీ": 1755,
      "▁డబ్బు": 1756,
      "▁వెళ్లి": 1757,
      "డిగా": 1758,
      "ార్డు": 1759,
      "▁మేము": 1760,
      "▁డె": 1761,
      "▁వెళ్ళ": 1762,
      "▁కుమార్": 1763,
      "మునకు": 1764,
      "▁ఘటన": 1765,
      "▁క్యా": 1766,
      "స్,": 1767,
      "▁f": 1768,
      "బడు": 1769,
      "కంటే": 1770,
      "స్టర్": 1771,
      "చూ": 1772,
      "▁అతను": 1773,
      "▁ప్": 1774,
      "డవ": 1775,
      "చ్ఛ": 1776,
      "దాపు": 1777,
      "త్యా": 1778,
      "సీపీ": 1779,
      "▁నాగ": 1780,
      "▁మరణ": 1781,
      "సార్": 1782,
      "),": 1783,
      "▁ఆత్మ": 1784,
      "న్సి": 1785,
      "బ్ర": 1786,
      "▁డ్ర": 1787,
      "▁కనిపి": 1788,
      "20": 1789,
      "మతి": 1790,
      "వరకు": 1791,
      "▁మాజీ": 1792,
      "▁దో": 1793,
      "▁గి": 1794,
      "▁నూ": 1795,
      "ాయ్": 1796,
      "▁టీడీపీ": 1797,
      "సై": 1798,
      "చె": 1799,
      "▁in": 1800,
      "తల": 1801,
      "పొ": 1802,
      "▁కారణంగా": 1803,
      "▁ప్రయా": 1804,
      "▁ఆంధ్ర": 1805,
      "▁నటి": 1806,
      "▁కష్ట": 1807,
      "పోయిన": 1808,
      "ాయణ": 1809,
      "డుకు": 1810,
      "▁లీ": 1811,
      "మర్": 1812,
      "▁to": 1813,
      "ంత్": 1814,
      "▁సంఖ్య": 1815,
      "మాండ్": 1816,
      "▁అభిమా": 1817,
      "▁పర్య": 1818,
      "▁ఫ్యా": 1819,
      "ందరు": 1820,
      "శ్రీ": 1821,
      "▁లేని": 1822,
      "▁తెలిసిందే.": 1823,
      "బ్బంది": 1824,
      "▁కొనుగో": 1825,
      "పడ్డ": 1826,
      "▁పథ": 1827,
      "▁నిర్ణయ": 1828,
      "▁విశ": 1829,
      "ములను": 1830,
      "▁కీలక": 1831,
      "▁గురు": 1832,
      "ప్తంగా": 1833,
      "ాయు": 1834,
      "▁దాదాపు": 1835,
      "▁నిల": 1836,
      "కల": 1837,
      "▁d": 1838,
      "▁నీటి": 1839,
      "▁చేస్తు": 1840,
      "us": 1841,
      "▁భార్య": 1842,
      "▁అయి": 1843,
      "▁పరిస్థితి": 1844,
      "un": 1845,
      "▁బాధ": 1846,
      "▁ఆదేశ": 1847,
      "మయ్య": 1848,
      "ట్లో": 1849,
      "▁పొంద": 1850,
      "రులు": 1851,
      "య్": 1852,
      "▁తేదీ": 1853,
      "పల్లి": 1854,
      "▁చీ": 1855,
      "▁చర్యలు": 1856,
      "▁గ్రామ": 1857,
      "▁అందుకు": 1858,
      "▁చేయడానికి": 1859,
      "▁ఇందులో": 1860,
      "ol": 1861,
      "▁బాధ్య": 1862,
      "కోవాలని": 1863,
      "▁అద్": 1864,
      "▁F": 1865,
      "రంగా": 1866,
      "వు.": 1867,
      "ంటున్నారు.": 1868,
      "ఖా": 1869,
      "▁చేస్తూ": 1870,
      "▁ఎలాంటి": 1871,
      "▁కంటే": 1872,
      "▁ఇంటర్": 1873,
      "గాలు": 1874,
      "స్తామని": 1875,
      "▁కౌ": 1876,
      "▁వ్యవస్థ": 1877,
      "చర్": 1878,
      "▁లక్షల": 1879,
      "▁ఇండియా": 1880,
      "తిరే": 1881,
      "▁మార": 1882,
      "▁ఎందు": 1883,
      "▁వాటిని": 1884,
      "ట్టే": 1885,
      "బర్": 1886,
      "నాన్ని": 1887,
      "▁ఎందుకు": 1888,
      "▁మ్యాచ్": 1889,
      "ch": 1890,
      "▁ఆరోప": 1891,
      "తిక": 1892,
      "▁లేదని": 1893,
      "▁ఆఫ్": 1894,
      "తాయి.": 1895,
      "▁గుర్తు": 1896,
      "▁కింద": 1897,
      "గత": 1898,
      "ములో": 1899,
      "ంగు": 1900,
      "\"<newline>\"": 1901,
      "ంచే": 1902,
      "▁కాకుండా": 1903,
      "▁జాతీయ": 1904,
      "▁h": 1905,
      "రవ": 1906,
      "రిత్ర": 1907,
      "▁టె": 1908,
      "యల్": 1909,
      "▁జరిగింది.": 1910,
      "▁ఎక్కువగా": 1911,
      "▁కృ": 1912,
      "ండ్రి": 1913,
      "▁కల్ప": 1914,
      "▁చట్ట": 1915,
      "▁అవసర": 1916,
      "▁18": 1917,
      "రి.": 1918,
      "▁గొప్ప": 1919,
      "చిత": 1920,
      "కింగ్": 1921,
      "ేశారు.": 1922,
      "ప్రదేశ్": 1923,
      "▁ప్రవేశ": 1924,
      "సింది.": 1925,
      "పక్ష": 1926,
      "▁యూని": 1927,
      "▁నమోదు": 1928,
      "▁మాట్లాడ": 1929,
      "▁చేశారు.<newline>": 1930,
      "▁ఆసక్తి": 1931,
      "▁ప్రేక్ష": 1932,
      "▁వ్యతిరే": 1933,
      "▁ఆక": 1934,
      "▁ఇచ్చిన": 1935,
      "వ్వు": 1936,
      "కపోతే": 1937,
      "ేష్": 1938,
      "వస": 1939,
      "▁పెళ్లి": 1940,
      "▁అందరి": 1941,
      "▁మూవీ": 1942,
      "▁పడ": 1943,
      "దాయ": 1944,
      "తున్నాయి.": 1945,
      "▁తొల": 1946,
      "ఫి": 1947,
      "ir": 1948,
      "ప్తి": 1949,
      "తున్నా": 1950,
      "▁ఏం": 1951,
      "గాల": 1952,
      "▁అమెరికా": 1953,
      "▁నాలుగు": 1954,
      "▁ఎంపీ": 1955,
      "ల్డ్": 1956,
      "▁ఆధ": 1957,
      "▁మనం": 1958,
      "ందోళ": 1959,
      "▁11": 1960,
      "et": 1961,
      "▁ఎన్నికల": 1962,
      "▁ప్రకటన": 1963,
      "▁దగ్గర": 1964,
      "శ్రమ": 1965,
      "ంస": 1966,
      "▁భాగంగా": 1967,
      "▁కొనుగోలు": 1968,
      "ముగ": 1969,
      "▁కన": 1970,
      "కృష్ణ": 1971,
      "▁స్పంద": 1972,
      "లర్": 1973,
      "▁ప్రో": 1974,
      "▁రిక": 1975,
      "▁రాష్ట్రంలో": 1976,
      "▁సామా": 1977,
      "▁అడుగు": 1978,
      "▁విచారణ": 1979,
      "కిత్స": 1980,
      "▁అమలు": 1981,
      "▁ఎన్న": 1982,
      "వైపు": 1983,
      "▁ఉన్నారు.": 1984,
      "▁రాజు": 1985,
      "తారు.": 1986,
      "▁అత్యంత": 1987,
      "ak": 1988,
      "స్తాయి.": 1989,
      "▁శక్తి": 1990,
      "ించి,": 1991,
      "ులకు": 1992,
      "పూ": 1993,
      "ర్వ": 1994,
      "▁అధికారు": 1995,
      "▁రోజుల": 1996,
      "▁కారు": 1997,
      "ాన్": 1998,
      "▁స్థి": 1999,
      "▁సభ": 2000,
      "▁ఉన్నా": 2001,
      "లిక": 2002,
      "▁మేరకు": 2003,
      "▁పంచ": 2004,
      "▁శ్రీని": 2005,
      "పాద": 2006,
      "▁విశ్వ": 2007,
      "▁అందుకే": 2008,
      "ంట్లో": 2009,
      "▁ప్రభుత్వా": 2010,
      "ంగి": 2011,
      "▁వరు": 2012,
      "▁అనంతరం": 2013,
      "ఱు": 2014,
      "▁ప్రముఖ": 2015,
      "▁కోర్టు": 2016,
      "ంలోకి": 2017,
      "▁డైర": 2018,
      "▁of": 2019,
      "▁ఢిల్లీ": 2020,
      "▁హీరోయిన్": 2021,
      "ితం": 2022,
      "▁మార్కెట్": 2023,
      "▁డిమాండ్": 2024,
      "▁నిర": 2025,
      "ండగా": 2026,
      "వలన": 2027,
      "ov": 2028,
      "▁జ్": 2029,
      "ారెడ్డి": 2030,
      "id": 2031,
      "డిని": 2032,
      "▁ప్రస": 2033,
      "▁ట్రా": 2034,
      "▁వచ్చింది.": 2035,
      "▁జాగ్ర": 2036,
      "▁వినియోగ": 2037,
      "▁అప్పుడు": 2038,
      "ప్పి": 2039,
      "▁రూపొ": 2040,
      "▁ఇలాంటి": 2041,
      "▁30": 2042,
      "▁మొదల": 2043,
      "▁చెప్పిన": 2044,
      "▁ప్రజల": 2045,
      "రుష": 2046,
      "▁అంచ": 2047,
      "▁అద్భు": 2048,
      "షణ": 2049,
      "▁వీటి": 2050,
      "ఁడ": 2051,
      "▁ఎవరి": 2052,
      "▁బ్రా": 2053,
      "▁గూ": 2054,
      "▁లేదు": 2055,
      "టల్": 2056,
      "వాడ": 2057,
      "▁క్రీ": 2058,
      "ాలి.<newline>": 2059,
      "▁తమి": 2060,
      "▁నమ్మ": 2061,
      "▁సినిమాలో": 2062,
      "▁పక్క": 2063,
      "▁దశ": 2064,
      "▁వ్యాఖ్య": 2065,
      "లేని": 2066,
      "▁చివరి": 2067,
      "డంలో": 2068,
      "క్రమా": 2069,
      "లూ": 2070,
      "▁దేశంలో": 2071,
      "▁n": 2072,
      "▁గతంలో": 2073,
      "▁ఉపా": 2074,
      "ితా": 2075,
      "తుందని": 2076,
      "ించేందుకు": 2077,
      "▁భావి": 2078,
      "▁తనకు": 2079,
      "రాజు": 2080,
      "▁అయితే,": 2081,
      "నలు": 2082,
      "తమైన": 2083,
      "▁ఫీ": 2084,
      "▁అభ్యర్థ": 2085,
      "▁సహాయ": 2086,
      "▁నై": 2087,
      "▁న్యాయ": 2088,
      "యె": 2089,
      "▁విస్త": 2090,
      "▁ఆందోళ": 2091,
      "▁ప్రొ": 2092,
      "▁జ్ఞ": 2093,
      "బ్ద": 2094,
      "స్తున్నాయి.": 2095,
      "▁వేయ": 2096,
      "▁ఆనంద": 2097,
      "▁అయినా": 2098,
      "▁తయారు": 2099,
      "కూడ": 2100,
      "▁విద్యా": 2101,
      "▁ముందుకు": 2102,
      "▁G": 2103,
      "ోర్": 2104,
      "▁సూర్": 2105,
      "▁శివ": 2106,
      "▁మండల": 2107,
      "▁జై": 2108,
      "▁అభిప్ర": 2109,
      "▁పోరా": 2110,
      "ారాయణ": 2111,
      "▁జాగ్రత్త": 2112,
      "ష్క": 2113,
      "లింగ్": 2114,
      "▁సము": 2115,
      "న్మ": 2116,
      "టివ్": 2117,
      "▁రాత్రి": 2118,
      "▁మార్పు": 2119,
      "▁ఎన్నికల్లో": 2120,
      "▁చరిత్ర": 2121,
      "▁వారిని": 2122,
      "▁దర్శక": 2123,
      "▁క్రమంలో": 2124,
      "▁అవి": 2125,
      "▁తెలుసు": 2126,
      "▁పరుగు": 2127,
      "▁చికిత్స": 2128,
      "▁ఫా": 2129,
      "ారు,": 2130,
      "చ్చు.": 2131,
      "ళ్లీ": 2132,
      "▁రాయ": 2133,
      "▁నొ": 2134,
      "ఁగ": 2135,
      "ంటె": 2136,
      "▁లక్ష్": 2137,
      "చో": 2138,
      "▁ఇటీవల": 2139,
      "క్య": 2140,
      "▁నియోజ": 2141,
      "▁వర్ష": 2142,
      "▁ఖర్చు": 2143,
      "▁విలువ": 2144,
      "▁సర్వ": 2145,
      "ot": 2146,
      "ప్టె": 2147,
      "▁షూ": 2148,
      "▁ఆశ": 2149,
      "నియర్": 2150,
      "ాలంటే": 2151,
      "▁సత్య": 2152,
      "ent": 2153,
      "వతి": 2154,
      "▁కృష్ణ": 2155,
      "▁షే": 2156,
      "▁అందులో": 2157,
      "▁కోల్": 2158,
      "▁అంతర్": 2159,
      "▁భాష": 2160,
      "▁సంగతి": 2161,
      "వల్ల": 2162,
      "▁L": 2163,
      "గ్రా": 2164,
      "కవర్": 2165,
      "పద": 2166,
      "దులు": 2167,
      "డర్": 2168,
      "▁సంతో": 2169,
      "▁జరగ": 2170,
      "క్షే": 2171,
      "చుకు": 2172,
      "▁అప్ప": 2173,
      "▁మళ్లీ": 2174,
      "▁లేక": 2175,
      "▁సాగు": 2176,
      "▁K": 2177,
      "ాలపై": 2178,
      "▁అనుకు": 2179,
      "సాయ": 2180,
      "▁పూర్తిగా": 2181,
      "▁తది": 2182,
      "▁వీరి": 2183,
      "▁ఆట": 2184,
      "▁ప్రదర్శ": 2185,
      "▁చెల్ల": 2186,
      "ew": 2187,
      "బడ": 2188,
      "▁రిలీ": 2189,
      "పం": 2190,
      "ర్చి": 2191,
      "పెట్ట": 2192,
      "▁బహు": 2193,
      "క్స": 2194,
      "ఎల్": 2195,
      "▁సంత": 2196,
      "▁నిర్ణయం": 2197,
      "▁ఎంపిక": 2198,
      "నుంది.": 2199,
      "క్సి": 2200,
      "▁చదు": 2201,
      "కోర్టు": 2202,
      "▁మారు": 2203,
      "▁సొంత": 2204,
      "ానని": 2205,
      "▁సోమ": 2206,
      "▁తిరు": 2207,
      "ఖ్యా": 2208,
      "▁తగ్": 2209,
      "ధానం": 2210,
      "పోయింది.": 2211,
      "▁ఉంది.<newline>": 2212,
      "్యాణ్": 2213,
      "▁ఉంది": 2214,
      "▁స్థాన": 2215,
      "ంధీ": 2216,
      "ీత": 2217,
      "▁తప్పు": 2218,
      "రై": 2219,
      "ౌన్": 2220,
      "డమే": 2221,
      "▁వైసీపీ": 2222,
      "▁రెండో": 2223,
      "▁మద్ద": 2224,
      "▁సాయ": 2225,
      "▁అసలు": 2226,
      "▁వైపు": 2227,
      "రుగా": 2228,
      "▁డాక్టర్": 2229,
      "▁యుద్ధ": 2230,
      "▁y": 2231,
      "చ్చిన": 2232,
      "▁బయట": 2233,
      "▁H": 2234,
      "▁సంచ": 2235,
      "▁14": 2236,
      "▁నడు": 2237,
      "▁తండ్రి": 2238,
      "బుల్": 2239,
      "▁చేసుకోవ": 2240,
      "ur": 2241,
      "▁పెట్టి": 2242,
      "▁కార్యాల": 2243,
      "ెస్టు": 2244,
      "▁ప్రాజెక్టు": 2245,
      "▁అందుబాటు": 2246,
      "▁మీడియాలో": 2247,
      "▁సమయం": 2248,
      "▁భూమి": 2249,
      "▁ఒకటి": 2250,
      "▁రాష్ట్రా": 2251,
      "రంగ": 2252,
      "ష్ఠ": 2253,
      "గాయ": 2254,
      "▁కార్యక్రమా": 2255,
      "ూర్తి": 2256,
      "▁చేస్త": 2257,
      "▁ప్రై": 2258,
      "▁బంధ": 2259,
      "▁సినిమ": 2260,
      "▁ధర్మ": 2261,
      "▁నియోజకవర్": 2262,
      "ce": 2263,
      "నాడు": 2264,
      "గతి": 2265,
      "రాజ": 2266,
      "యానికి": 2267,
      "▁జిల్లాలో": 2268,
      "▁ప్రధాని": 2269,
      "▁రూపాయ": 2270,
      "ధులు": 2271,
      "స్వ": 2272,
      "లిన": 2273,
      "▁చేశా": 2274,
      "ి.<newline>": 2275,
      "▁సామ": 2276,
      "▁చేశాడు.": 2277,
      "సెంబ": 2278,
      "షనల్": 2279,
      "▁వ్యాపార": 2280,
      "▁దీనికి": 2281,
      "ag": 2282,
      "▁కార్యక్రమంలో": 2283,
      "▁స్త్రీ": 2284,
      "ృహ": 2285,
      "జిక": 2286,
      "రేషన్": 2287,
      "▁తమిళ": 2288,
      "▁25": 2289,
      "▁చోటు": 2290,
      "▁పేర్కొన్నారు.": 2291,
      "తులను": 2292,
      "▁V": 2293,
      "ర్మా": 2294,
      "▁వాస్త": 2295,
      "..<newline>": 2296,
      "కల్": 2297,
      "▁వయ": 2298,
      "రుగ": 2299,
      "ct": 2300,
      "▁కొందరు": 2301,
      "▁బాబు": 2302,
      "క్ట": 2303,
      "▁కేంద్రం": 2304,
      "▁వైఎస్": 2305,
      "▁ఇద్దరు": 2306,
      "ధన": 2307,
      "▁ఒకే": 2308,
      "▁బై": 2309,
      "సో": 2310,
      "ంద్రా": 2311,
      "▁అప్": 2312,
      "▁ఎందుకంటే": 2313,
      "▁బ్రహ్మ": 2314,
      "▁ఐదు": 2315,
      "▁నిర్వహి": 2316,
      "▁ఉంటాయి.": 2317,
      "▁ముఖ్యంగా": 2318,
      "▁చేస్తే": 2319,
      "▁మంత్ర": 2320,
      "▁ఉత్పత్తి": 2321,
      "థా": 2322,
      "దవ": 2323,
      "▁స్నే": 2324,
      "గంలో": 2325,
      "జూ": 2326,
      "టంతో": 2327,
      "రణ్": 2328,
      "మల": 2329,
      "ప్పుడూ": 2330,
      "▁నిమి": 2331,
      "ఱి": 2332,
      "-1": 2333,
      "▁పట్టు": 2334,
      "ేశ్వ": 2335,
      "హె": 2336,
      "య్యా": 2337,
      "▁ఉదయం": 2338,
      "▁13": 2339,
      "▁అధ్యక్షుడు": 2340,
      "▁అనేది": 2341,
      "ది.<newline>": 2342,
      "▁జయ": 2343,
      "ర్మన్": 2344,
      "▁కోర": 2345,
      "▁చేరు": 2346,
      "▁యే": 2347,
      "ందన్నారు.": 2348,
      "▁కోట్లు": 2349,
      "ంప్": 2350,
      "▁సంబంధించి": 2351,
      "▁200": 2352,
      "▁కనిపించ": 2353,
      "▁పత్ర": 2354,
      "▁పైగా": 2355,
      "▁తగిన": 2356,
      "▁కమిటీ": 2357,
      "▁గే": 2358,
      "▁ఫై": 2359,
      "▁విశేష": 2360,
      "▁గమని": 2361,
      "▁నాయకులు": 2362,
      "వడంతో": 2363,
      "▁వున్న": 2364,
      "▁ఎన్నో": 2365,
      "▁అడి": 2366,
      "పుడు": 2367,
      "్లీ": 2368,
      "త,": 2369,
      "యంగా": 2370,
      "▁చేపట్ట": 2371,
      "హీ": 2372,
      "ంటో": 2373,
      "త్మక": 2374,
      "▁ఫిర్యా": 2375,
      "▁బే": 2376,
      "కారు": 2377,
      "రక": 2378,
      "▁ముగి": 2379,
      "▁ఆప": 2380,
      "▁50": 2381,
      "▁వివరించ": 2382,
      "▁మంగళ": 2383,
      "గుణ": 2384,
      "టర్ల": 2385,
      "▁చెప్పి": 2386,
      "▁ఆలోచన": 2387,
      "త్రు": 2388,
      "మొ": 2389,
      "▁కళా": 2390,
      "▁అంగ": 2391,
      "▁రిలీజ్": 2392,
      "▁అధ": 2393,
      "▁మిగి": 2394,
      "్రే": 2395,
      "▁హాజ": 2396,
      "ంభ": 2397,
      "ర్ప": 2398,
      "స్తుంది.<newline>": 2399,
      "▁చూప": 2400,
      "▁నేతలు": 2401,
      "▁కను": 2402,
      "టై": 2403,
      "నాథ": 2404,
      "వలె": 2405,
      "నున్నారు.": 2406,
      "కరమైన": 2407,
      "▁కేట": 2408,
      "▁16": 2409,
      "రము": 2410,
      "▁సాం": 2411,
      "ికా": 2412,
      "▁కార్యదర్శ": 2413,
      "▁భయ": 2414,
      "ందరి": 2415,
      "▁కొద్ది": 2416,
      "ేశ్": 2417,
      "ేశ్వర": 2418,
      "రుపు": 2419,
      "ణంలో": 2420,
      "ాలీవుడ్": 2421,
      "im": 2422,
      "▁తెలిపి": 2423,
      "హారం": 2424,
      "లేదని": 2425,
      "రుల": 2426,
      "▁ఉద్యోగు": 2427,
      "స్తుంది": 2428,
      "ఫర్": 2429,
      "▁అలాంటి": 2430,
      "▁భో": 2431,
      "▁పది": 2432,
      "▁నవ": 2433,
      "▁జట్టు": 2434,
      "▁పరిధి": 2435,
      "▁తెలుస్తోంది.": 2436,
      "ut": 2437,
      "▁రచ": 2438,
      "▁ప్రచారం": 2439,
      "స్టి": 2440,
      "▁మను": 2441,
      "డు.<newline>": 2442,
      "▁గాయ": 2443,
      "!<newline>-": 2444,
      "▁త్": 2445,
      "ితంగా": 2446,
      "ః<newline>": 2447,
      "ారాన్ని": 2448,
      "▁యీ": 2449,
      "వాద": 2450,
      "కుని": 2451,
      "▁వెంకట": 2452,
      "▁కనిప": 2453,
      "సెంబ్లీ": 2454,
      "▁మృ": 2455,
      "▁బాగు": 2456,
      "▁భగ": 2457,
      "ారని,": 2458,
      "▁ఇండ": 2459,
      "▁సెల": 2460,
      "000": 2461,
      "▁చూసి": 2462,
      "▁దానికి": 2463,
      "▁భద్ర": 2464,
      "ow": 2465,
      "కులకు": 2466,
      "▁ఆందోళన": 2467,
      "▁పనులు": 2468,
      "▁టీఆర్ఎస్": 2469,
      "▁మద్దతు": 2470,
      "▁చక్క": 2471,
      "వలసిన": 2472,
      "▁సూపర్": 2473,
      "▁స్థానిక": 2474,
      "▁విశ్": 2475,
      "మాన్": 2476,
      "▁ఇష్ట": 2477,
      "▁ఔ": 2478,
      "▁కొనసాగు": 2479,
      "ండి.<newline>": 2480,
      "నుల": 2481,
      "▁ఎక్క": 2482,
      "ష్ట్ర": 2483,
      "▁విజయం": 2484,
      "▁స్పష్ట": 2485,
      "▁కేసులు": 2486,
      "▁లాంటి": 2487,
      "ంథ": 2488,
      "▁గంటల": 2489,
      "▁అసెంబ్లీ": 2490,
      "▁పౌ": 2491,
      "ాప": 2492,
      "మగు": 2493,
      "ం.<newline>": 2494,
      "▁కట్ట": 2495,
      "▁భర్త": 2496,
      "▁కనీ": 2497,
      "▁స్వీ": 2498,
      "నేందుకు": 2499,
      "యితే": 2500,
      "▁షో": 2501,
      "▁వది": 2502,
      "▁విభా": 2503,
      "లభ": 2504,
      "▁మని": 2505,
      "▁ప్రమాద": 2506,
      "▁అదన": 2507,
      "▁శ్": 2508,
      "▁సైతం": 2509,
      "▁చేరి": 2510,
      "ంకర్": 2511,
      "కార్": 2512,
      "ితీ": 2513,
      "▁చదువు": 2514,
      "ించింది.<newline>": 2515,
      "▁సంప్ర": 2516,
      "▁విషయాన్ని": 2517,
      "▁అప్పటి": 2518,
      "తుంది": 2519,
      "ఫో": 2520,
      "ండర్": 2521,
      "ాలనే": 2522,
      "▁and": 2523,
      "▁లేకపో": 2524,
      "▁మొదలు": 2525,
      "▁పెంచ": 2526,
      "▁ఆడ": 2527,
      "▁సింగ్": 2528,
      "▁New": 2529,
      "▁కారణం": 2530,
      "▁పొందు": 2531,
      "▁డైరెక్టర్": 2532,
      "రియా": 2533,
      "▁సినిమాలు": 2534,
      "▁హింద": 2535,
      "▁?<newline>": 2536,
      "▁ఎన్టీఆర్": 2537,
      "▁అభిప్రాయ": 2538,
      "▁వేగ": 2539,
      "▁ఘన": 2540,
      "▁ప్రజలకు": 2541,
      "ద్దేశ": 2542,
      "▁గాంధీ": 2543,
      "తికి": 2544,
      "విడ్": 2545,
      "▁జారీ": 2546,
      "▁పరిశీల": 2547,
      "▁ఎక్కడ": 2548,
      "▁లోప": 2549,
      "▁వరుస": 2550,
      "▁కాల్": 2551,
      "iv": 2552,
      "▁సార్": 2553,
      "▁సృష్ట": 2554,
      "పుణ": 2555,
      "▁పరిశ్రమ": 2556,
      "▁త్రి": 2557,
      "▁సిబ్బంది": 2558,
      "▁సభ్యులు": 2559,
      "దయ": 2560,
      "ంగా,": 2561,
      "లేక": 2562,
      "న్లో": 2563,
      "ంక్": 2564,
      "ul": 2565,
      "▁17": 2566,
      "కుమార్": 2567,
      "తులకు": 2568,
      "గూ": 2569,
      "పడు": 2570,
      "▁తెలుసుకు": 2571,
      "▁నష్ట": 2572,
      "▁ఫిర్యాదు": 2573,
      "▁పంట": 2574,
      "▁చెయ్య": 2575,
      "▁సంతోష": 2576,
      "▁ఆగ": 2577,
      "▁బంగ": 2578,
      "▁వేద": 2579,
      "స్లో": 2580,
      "▁నన్ను": 2581,
      "▁వహ": 2582,
      "▁ప్రశ్నించ": 2583,
      "▁భక్": 2584,
      "▁వైరల్": 2585,
      "▁దిశ": 2586,
      "▁ప్రక్రియ": 2587,
      "▁ఉంచ": 2588,
      "▁వేదిక": 2589,
      "▁పెరిగి": 2590,
      "ండే": 2591,
      "ించుకో": 2592,
      "లేదు": 2593,
      "▁ద్ర": 2594,
      "▁పరిచ": 2595,
      "ంటీ": 2596,
      "లేకపో": 2597,
      "ేఖ": 2598,
      "▁స్పష్టం": 2599,
      "▁నడి": 2600,
      "▁అడ": 2601,
      "▁ఫోటో": 2602,
      "▁మందు": 2603,
      "ళీ": 2604,
      "ట్రో": 2605,
      "▁విద్యు": 2606,
      "▁చేసుకున్న": 2607,
      "▁k": 2608,
      "▁నిజా": 2609,
      "▁తీసుకున్న": 2610,
      "నము": 2611,
      "గ్రహ": 2612,
      "▁వాతా": 2613,
      "▁బౌ": 2614,
      "▁డ్రై": 2615,
      "ాంత": 2616,
      "నీ,": 2617,
      "▁కల్": 2618,
      "గ్ని": 2619,
      "▁పూజ": 2620,
      "▁తెలిపారు.<newline>": 2621,
      "ంటుంది.": 2622,
      "హరణ": 2623,
      "av": 2624,
      "▁విభ": 2625,
      "▁చైనా": 2626,
      "ర్ట్": 2627,
      "▁వైరస్": 2628,
      "▁తరల": 2629,
      "▁శుక్ర": 2630,
      "▁ఇత": 2631,
      "▁వెనుక": 2632,
      "పడుతు": 2633,
      "▁పద్ధ": 2634,
      "▁తాము": 2635,
      "శ్య": 2636,
      "▁లభ": 2637,
      "లవ": 2638,
      "యందు": 2639,
      "▁ఫు": 2640,
      "రల్": 2641,
      "▁E": 2642,
      "▁ఇంట్లో": 2643,
      "మ్మి": 2644,
      "▁ఎత్తు": 2645,
      "▁కదా": 2646,
      "▁News": 2647,
      "▁వంద": 2648,
      "▁పురుష": 2649,
      "గించ": 2650,
      "▁స్థాయిలో": 2651,
      "▁హత్య": 2652,
      "మణ": 2653,
      "▁కీ": 2654,
      "తుంది.<newline>": 2655,
      "ాడు.<newline>": 2656,
      "▁రహ": 2657,
      "త్వంలో": 2658,
      "▁తీసుకో": 2659,
      "ab": 2660,
      "▁అంతేకా": 2661,
      "▁కార్యదర్శి": 2662,
      "స్వామి": 2663,
      "▁సంస్క": 2664,
      "▁మృతి": 2665,
      "మన్నారు.": 2666,
      "న్లు": 2667,
      "ధ్యా": 2668,
      "భావ": 2669,
      "వ్యాప్తంగా": 2670,
      "▁రాహు": 2671,
      "▁బయటకు": 2672,
      "▁అభ": 2673,
      "▁శుభ": 2674,
      "మత": 2675,
      "▁దేవు": 2676,
      "▁జు": 2677,
      "డ్జ": 2678,
      "▁వెబ్": 2679,
      "పురం": 2680,
      "▁మరొక": 2681,
      "మీద": 2682,
      "ందర్": 2683,
      "ందని,": 2684,
      "▁సహా": 2685,
      "▁కాలంలో": 2686,
      "రించు": 2687,
      "▁వాతావరణ": 2688,
      "సరి": 2689,
      "▁వ్యవసాయ": 2690,
      "▁g": 2691,
      "▁అర్థం": 2692,
      "ఎఫ్": 2693,
      "క్,": 2694,
      "ము.<newline>": 2695,
      "▁స్టేషన్": 2696,
      "ండీ": 2697,
      "▁షూటింగ్": 2698,
      "వల్": 2699,
      "రించిన": 2700,
      "జాతీయ": 2701,
      "సుప": 2702,
      "▁ముఖ": 2703,
      "▁క్రిక": 2704,
      "est": 2705,
      "ాలే": 2706,
      "కము": 2707,
      "ల్లోకి": 2708,
      "▁ఏళ్ల": 2709,
      "▁పున": 2710,
      "▁మోదీ": 2711,
      "▁బాధ్యత": 2712,
      "▁తీసుకొ": 2713,
      "▁సీనియర్": 2714,
      "యిర్": 2715,
      "▁గ్రామా": 2716,
      "▁అద": 2717,
      "్రె": 2718,
      "▁గణ": 2719,
      "▁అంతా": 2720,
      "ద్దా": 2721,
      "▁కమ": 2722,
      "▁బిల్": 2723,
      "స్తోంది.<newline>": 2724,
      "▁శని": 2725,
      "▁సాధ్య": 2726,
      "▁చేరుకు": 2727,
      "▁రోజుల్లో": 2728,
      "గారు": 2729,
      "▁దృ": 2730,
      "సిం": 2731,
      "▁ముంబ": 2732,
      "▁కాగా": 2733,
      "దేశం": 2734,
      "▁వస్తున్న": 2735,
      "▁రోడ్డు": 2736,
      "▁మెగా": 2737,
      "సభ": 2738,
      "రామ": 2739,
      "న్యా": 2740,
      "▁ట్వి": 2741,
      "▁శ్రీనివా": 2742,
      "▁24": 2743,
      "న్నె": 2744,
      "▁వీర": 2745,
      "▁ఆన్": 2746,
      "▁దాడి": 2747,
      "▁ఆంధ్రప్రదేశ్": 2748,
      "▁కిలో": 2749,
      "ట్లుగా": 2750,
      "నాయ": 2751,
      "▁పాద": 2752,
      "▁ఇబ్బ": 2753,
      "నగర్": 2754,
      "ర్పు": 2755,
      "▁పాఠశాల": 2756,
      "్యాన్ని": 2757,
      "స్తున్నారు.<newline>": 2758,
      "▁స్కూ": 2759,
      "త్సా": 2760,
      "▁ఫలిత": 2761,
      "▁మొక్క": 2762,
      "కోవడానికి": 2763,
      "▁ఏదో": 2764,
      "ెం": 2765,
      "▁బ్లా": 2766,
      "▁పేరుతో": 2767,
      "▁ప్యా": 2768,
      "▁J": 2769,
      "▁కానీ,": 2770,
      "▁విడి": 2771,
      "▁స్టా": 2772,
      "▁ఆవి": 2773,
      "▁జీవ": 2774,
      "▁పంపి": 2775,
      "▁on": 2776,
      "పోయా": 2777,
      "యినా": 2778,
      "▁సోమవారం": 2779,
      "▁కోరు": 2780,
      "▁నటు": 2781,
      "నింగ్": 2782,
      "▁తెరకె": 2783,
      "షు": 2784,
      "▁గ్రహ": 2785,
      "▁తగ్గి": 2786,
      "విష్య": 2787,
      "▁అందరూ": 2788,
      "▁గుర": 2789,
      "హన్": 2790,
      "▁ఎదురు": 2791,
      "▁స్టే": 2792,
      "▁వలన": 2793,
      "▁దానిని": 2794,
      "కై": 2795,
      "▁చేర": 2796,
      "▁W": 2797,
      "▁ప్లే": 2798,
      "న్నాడు.<newline>": 2799,
      "▁బుధ": 2800,
      "కూల": 2801,
      "▁విదేశ": 2802,
      "▁సన్ని": 2803,
      "నానికి": 2804,
      "ష్ణ": 2805,
      "▁అక్కడి": 2806,
      "▁దర్శకుడు": 2807,
      "▁అండ్": 2808,
      "ద్వ": 2809,
      "▁నామ": 2810,
      "▁చేస్తున్నా": 2811,
      "▁అప్పు": 2812,
      "టమి": 2813,
      "ప్తు": 2814,
      "నియా": 2815,
      "సన్": 2816,
      "▁దక్షి": 2817,
      "▁టెక్": 2818,
      "క,": 2819,
      "▁రావు": 2820,
      "▁వల": 2821,
      "▁సమస్యలు": 2822,
      "▁శాస్త్ర": 2823,
      "▁రూపొంద": 2824,
      "▁గెలి": 2825,
      "మైంది.": 2826,
      "▁స్వామి": 2827,
      "▁ప్రైవే": 2828,
      "▁దెబ్బ": 2829,
      "th": 2830,
      "డ్డా": 2831,
      "▁రామ్": 2832,
      "పడిన": 2833,
      "కొండ": 2834,
      "▁హెచ్చ": 2835,
      "డుక": 2836,
      "డం,": 2837,
      "▁v": 2838,
      "డ్జెట్": 2839,
      "▁పాల్ప": 2840,
      "ల్లె": 2841,
      "▁లక్ష్య": 2842,
      "మ్స్": 2843,
      "గిరి": 2844,
      "▁కలెక్టర్": 2845,
      "కులను": 2846,
      ",<newline>": 2847,
      "▁అన్నారు.<newline>": 2848,
      "జం": 2849,
      "▁జరుగుతున్న": 2850,
      "▁ఇవి": 2851,
      "ug": 2852,
      "ారావు": 2853,
      "లియన్": 2854,
      "ంపి": 2855,
      "▁వేసి": 2856,
      "▁పోలీస్": 2857,
      "ఫల": 2858,
      "యస్": 2859,
      "our": 2860,
      "▁ఫే": 2861,
      "▁నటించిన": 2862,
      "కారం": 2863,
      "ప్రి": 2864,
      "చ్చే": 2865,
      "వేద": 2866,
      "▁అమ్మాయి": 2867,
      "▁చేయు": 2868,
      "▁లాభ": 2869,
      "▁వస్తే": 2870,
      "▁నింది": 2871,
      "▁చని": 2872,
      "మ్య": 2873,
      "▁మరోసారి": 2874,
      "▁విక్ర": 2875,
      "▁అనుమతి": 2876,
      "నాల": 2877,
      "▁సంవత్సరం": 2878,
      "▁జన్మ": 2879,
      "em": 2880,
      "▁భీ": 2881,
      "ట్ర": 2882,
      "▁సమీప": 2883,
      "స్ట్రీ": 2884,
      "ణము": 2885,
      "▁భవిష్య": 2886,
      "దిరి": 2887,
      "ఫె": 2888,
      "▁క్లి": 2889,
      "▁ఉదా": 2890,
      "ధం": 2891,
      "▁మోడీ": 2892,
      "▁విశాఖ": 2893,
      "▁గురువారం": 2894,
      "మన్": 2895,
      "మాత్ర": 2896,
      "▁ఉద్దేశ": 2897,
      "▁కాలం": 2898,
      "సేన": 2899,
      "ర్ఘ": 2900,
      "▁పాల్గొన్నారు.": 2901,
      "▁శుక్రవారం": 2902,
      "▁రాహుల్": 2903,
      "దండ్ర": 2904,
      "లికి": 2905,
      "▁ప్రాంతంలో": 2906,
      "జీవి": 2907,
      "▁సుమారు": 2908,
      "▁బోర్": 2909,
      "ంకు": 2910,
      "్రీన్": 2911,
      "▁వెన": 2912,
      "ైల్": 2913,
      "▁సినీ": 2914,
      "▁సిరీ": 2915,
      "సార": 2916,
      "ri": 2917,
      "▁ఆరోపణ": 2918,
      "od": 2919,
      "టరీ": 2920,
      "▁ఆరు": 2921,
      "▁అప": 2922,
      "▁ప్రయో": 2923,
      "▁హృ": 2924,
      "ందం": 2925,
      "▁ప్రాంతాల్లో": 2926,
      "nd": 2927,
      "ంబున": 2928,
      "ుని": 2929,
      "▁చేత": 2930,
      "వచ్చు.<newline>": 2931,
      "▁పేద": 2932,
      "▁రికార్డు": 2933,
      "జ్య": 2934,
      "ంచుకు": 2935,
      "▁ఏద": 2936,
      "▁ఎవరు": 2937,
      "▁వ్యాఖ్యలు": 2938,
      "▁కళ్యాణ్": 2939,
      "▁హక్కు": 2940,
      "వాల్": 2941,
      "▁కాపా": 2942,
      "▁పదార్థ": 2943,
      "ెక్ట్": 2944,
      "ంత్రం": 2945,
      "▁కూడ": 2946,
      "▁బాలీవుడ్": 2947,
      "▁పెరి": 2948,
      "ల్వే": 2949,
      "▁హామీ": 2950,
      "తకు": 2951,
      "ంపఁ": 2952,
      "ంక్ష": 2953,
      "నై": 2954,
      "▁నరే": 2955,
      "▁లోని": 2956,
      "▁అడ్డు": 2957,
      "▁ప్రసా": 2958,
      "వాల్సి": 2959,
      "వాహ": 2960,
      "▁ప్రభావం": 2961,
      "▁ఆసుప": 2962,
      "▁హిట్": 2963,
      "▁0": 2964,
      "▁నీరు": 2965,
      "▁గుర్తి": 2966,
      "▁రద్దు": 2967,
      "లక్ష": 2968,
      "▁మార్చి": 2969,
      "తని": 2970,
      "▁రకాల": 2971,
      "లియా": 2972,
      "▁పుస్త": 2973,
      "ంటున్నా": 2974,
      "▁ఆద": 2975,
      "▁దర": 2976,
      "▁రక్త": 2977,
      "్యూటీ": 2978,
      "▁ఆయా": 2979,
      "▁మైన": 2980,
      "▁అంతర్జాతీయ": 2981,
      "డుపు": 2982,
      "గణ": 2983,
      "▁మంగళవారం": 2984,
      "▁నీవు": 2985,
      "▁నిలిచి": 2986,
      "▁నిబంధ": 2987,
      "▁అందుబాటులో": 2988,
      "▁టాలీవుడ్": 2989,
      "మార్ట్": 2990,
      "హెచ్": 2991,
      "పడ్డారు.": 2992,
      "న్నే": 2993,
      "థి": 2994,
      "▁హైకోర్టు": 2995,
      "గలి": 2996,
      "▁జరిగే": 2997,
      "పేట": 2998,
      "▁ఆస్ప": 2999,
      "▁చేసేందుకు": 3000,
      "▁లెక్క": 3001,
      "▁కార్యకర్": 3002,
      "▁కై": 3003,
      "▁కవి": 3004,
      "ers": 3005,
      "▁పోస్టు": 3006,
      "వని": 3007,
      "ట్లను": 3008,
      "ంద్": 3009,
      "▁పట్ల": 3010,
      "▁వాహన": 3011,
      "▁బడ్జెట్": 3012,
      "▁చిరం": 3013,
      "యు,": 3014,
      "▁కార్మి": 3015,
      "▁ఉత్తర": 3016,
      "▁సార": 3017,
      "▁ముగ్గు": 3018,
      "▁ఇబ్బందు": 3019,
      "దుపు": 3020,
      "▁ప్రతిని": 3021,
      "▁నిరా": 3022,
      "ారిటీ": 3023,
      "▁సులభ": 3024,
      "▁రోజులు": 3025,
      "▁ప్రాణ": 3026,
      "▁గవర్": 3027,
      "▁ఖాతా": 3028,
      "50": 3029,
      "ులను": 3030,
      "ప్రా": 3031,
      "▁ప్రశ్న": 3032,
      "యూ": 3033,
      "▁నెలకొ": 3034,
      "హో": 3035,
      "దైన": 3036,
      "▁నర": 3037,
      "త్తా": 3038,
      "▁వరకూ": 3039,
      "▁అవకాశాలు": 3040,
      "▁పారి": 3041,
      "▁మందికి": 3042,
      "గా.": 3043,
      "▁బుధవారం": 3044,
      "▁మారింది.": 3045,
      "▁ఇంగ్": 3046,
      "▁(1": 3047,
      "ాయి,": 3048,
      "యిల్": 3049,
      "▁దిన": 3050,
      "ప్త": 3051,
      "కోసం": 3052,
      "ఫా": 3053,
      "▁క్ల": 3054,
      "ళ్లకు": 3055,
      "▁పర్యా": 3056,
      "▁పోస్ట్": 3057,
      "▁ఎం": 3058,
      "తుల్లో": 3059,
      "ద్రా": 3060,
      "▁సంక్షే": 3061,
      "గారి": 3062,
      "న్సీ": 3063,
      "ళిక": 3064,
      "షే": 3065,
      "▁ఇచ్చి": 3066,
      "లక": 3067,
      "▁తల్లిదండ్ర": 3068,
      "▁ప్రీ": 3069,
      "▁రైతులు": 3070,
      "▁ముఖ్యమైన": 3071,
      "▁ఆఫీ": 3072,
      "▁బృ": 3073,
      "▁కాలే": 3074,
      "▁దిగు": 3075,
      "▁ఆదివారం": 3076,
      "▁పోష": 3077,
      "▁దుర్": 3078,
      "▁సీజన్": 3079,
      "▁స్థానంలో": 3080,
      "▁సంపాద": 3081,
      "ందర": 3082,
      "కోవాలి.": 3083,
      "▁సామాజిక": 3084,
      "▁నిర్మాణ": 3085,
      "▁భి": 3086,
      "పడే": 3087,
      "▁బాధి": 3088,
      "▁వార్త": 3089,
      "ఫు": 3090,
      "▁సంఘటన": 3091,
      "▁దారు": 3092,
      "యోగి": 3093,
      "ధీ": 3094,
      "గ్రీ": 3095,
      "▁ఇంజ": 3096,
      "▁హు": 3097,
      "టిల్": 3098,
      "ాలనుకు": 3099,
      "వాలు": 3100,
      "చా": 3101,
      "ఖాస్తు": 3102,
      "▁th": 3103,
      "▁ఎదుర్కొ": 3104,
      "▁ఫ్": 3105,
      "ంటే,": 3106,
      "స్మ": 3107,
      "ేదు.": 3108,
      "▁రాజీ": 3109,
      "రానికి": 3110,
      "తుడు": 3111,
      "గితే": 3112,
      "▁గుండె": 3113,
      "▁సాహిత": 3114,
      "ష్ణు": 3115,
      "▁బ్రి": 3116,
      "న్నది.": 3117,
      "▁నిర్వహించారు.": 3118,
      "▁ఇంటికి": 3119,
      "▁హరి": 3120,
      "▁పెట్టుకు": 3121,
      "్రెడ్డి": 3122,
      "కు,": 3123,
      "▁మౌ": 3124,
      "వలసి": 3125,
      "▁ట్వీ": 3126,
      "▁చైర్మన్": 3127,
      "వున": 3128,
      "▁ఉంటుంది.<newline>": 3129,
      "▁సముద్ర": 3130,
      "▁'అ": 3131,
      "ైన్": 3132,
      "▁O": 3133,
      "ండ్ల": 3134,
      "శక్తి": 3135,
      "▁పను": 3136,
      "▁విద్యుత్": 3137,
      "▁మహారా": 3138,
      "లో,": 3139,
      "▁ఇచ్చారు.": 3140,
      "ించారు": 3141,
      "▁షె": 3142,
      "▁మనకు": 3143,
      "జ్ఞాన": 3144,
      "▁శనివారం": 3145,
      "▁సరైన": 3146,
      "▁ఇన్స్": 3147,
      "▁సేక": 3148,
      "చంద్ర": 3149,
      "బీఐ": 3150,
      "▁వెలుగు": 3151,
      "▁ప్లాన్": 3152,
      "▁పండు": 3153,
      "▁ఆహార": 3154,
      "ోత్స": 3155,
      "చ్చారు.": 3156,
      "యము": 3157,
      "చేత": 3158,
      "▁రాజ్య": 3159,
      "▁నిపుణ": 3160,
      "▁మరోవైపు": 3161,
      "▁ఓవర్": 3162,
      "ఁగా": 3163,
      "ts": 3164,
      "ఫిక": 3165,
      "▁మహేష్": 3166,
      "▁చుట్ట": 3167,
      "▁మనో": 3168,
      "▁గ్రంథ": 3169,
      "వంతమైన": 3170,
      "▁శో": 3171,
      "▁కేసులో": 3172,
      "శారు.": 3173,
      "ేది.": 3174,
      "▁పాత": 3175,
      "ap": 3176,
      "▁దక్క": 3177,
      "శో": 3178,
      "▁విజయ్": 3179,
      "hi": 3180,
      "ెంట్": 3181,
      "▁కనీసం": 3182,
      "వాల": 3183,
      "▁నాట": 3184,
      "▁దరఖాస్తు": 3185,
      "నుండి": 3186,
      "▁చేస": 3187,
      "▁40": 3188,
      "▁సంవత్సరాల": 3189,
      "▁పైన": 3190,
      "▁పలువు": 3191,
      "▁చొ": 3192,
      "▁మూల": 3193,
      "్రాంతి": 3194,
      "▁స్క": 3195,
      "▁ప్రయోజ": 3196,
      "▁సహజ": 3197,
      "▁ఏర్పా": 3198,
      "డప": 3199,
      "వత": 3200,
      "▁ఎల": 3201,
      "▁తిన": 3202,
      "▁స్నేహి": 3203,
      "రు,": 3204,
      "▁హే": 3205,
      "గీ": 3206,
      "▁పక్ష": 3207,
      "ation": 3208,
      "▁త్వరలో": 3209,
      "▁21": 3210,
      "▁భు": 3211,
      "▁స్మార్ట్": 3212,
      "▁కుమారు": 3213,
      "ఎన్": 3214,
      "▁క్రితం": 3215,
      "▁రైల్వే": 3216,
      "విని": 3217,
      "ro": 3218,
      "భార": 3219,
      "▁నియమ": 3220,
      "ష్యా": 3221,
      "ప్రీ": 3222,
      "▁ఆకర్": 3223,
      "▁మహిళా": 3224,
      "▁వాళ్ళ": 3225,
      "ంతర": 3226,
      "▁బూ": 3227,
      "చ్చితంగా": 3228,
      "మానం": 3229,
      "▁దీనిని": 3230,
      "▁ఒత్తి": 3231,
      "▁థి": 3232,
      "సర": 3233,
      "ఫ్ట్": 3234,
      "▁కృషి": 3235,
      "▁బహి": 3236,
      "▁ఆలోచ": 3237,
      "ంబుల": 3238,
      "▁న్యూస్": 3239,
      "▁రాజధాని": 3240,
      "్యాల": 3241,
      "న్నాయి.": 3242,
      "శేఖ": 3243,
      "▁ఉంటుందని": 3244,
      "▁వంట": 3245,
      "రింగ్": 3246,
      "▁దాన్ని": 3247,
      "<newline>అ": 3248,
      "పోయారు.": 3249,
      "సార్లు": 3250,
      "జయ్": 3251,
      "▁క్రమ": 3252,
      "▁వివరాలు": 3253,
      "వారికి": 3254,
      "యిత": 3255,
      "మను": 3256,
      "▁తదిత": 3257,
      "▁శాసన": 3258,
      "▁ప్రాధా": 3259,
      "▁సల": 3260,
      "గ్గా": 3261,
      "పాలు": 3262,
      "▁తెలిపింది.": 3263,
      "▁మాస్": 3264,
      "▁తీసుకె": 3265,
      "▁చిరంజీవి": 3266,
      "▁స్పె": 3267,
      "చేసి": 3268,
      "▁బ్యాంకు": 3269,
      "శీ": 3270,
      "ష్కరించ": 3271,
      "▁సోద": 3272,
      "▁ఉత్తమ": 3273,
      "▁కన్": 3274,
      "సీసీ": 3275,
      "▁వాని": 3276,
      "▁వాయి": 3277,
      "▁జల": 3278,
      "▁100": 3279,
      "వేదిక": 3280,
      "▁విధాన": 3281,
      "▁వాడ": 3282,
      "▁ఇచ్చే": 3283,
      "▁కలు": 3284,
      "▁సమాచారం.": 3285,
      "▁అరు": 3286,
      "▁ఉదాహరణ": 3287,
      "▁కాస్త": 3288,
      "▁రవి": 3289,
      "▁పూర్త": 3290,
      "▁లభి": 3291,
      "హత్య": 3292,
      "▁ఆశ్చ": 3293,
      "▁పరిశో": 3294,
      "ముతో": 3295,
      "టీసీ": 3296,
      "▁వేడుక": 3297,
      "▁అద్భుతమైన": 3298,
      "▁ఏదైనా": 3299,
      "▁దర్యా": 3300,
      "కొను": 3301,
      "▁చేసుకో": 3302,
      "▁తిరుగు": 3303,
      "▁రెండవ": 3304,
      "▁ఇండస్ట్రీ": 3305,
      "▁పాకి": 3306,
      "మౌ": 3307,
      "▁వ్రా": 3308,
      "▁మార్గ": 3309,
      "▁షేర్": 3310,
      "▁అధి": 3311,
      "▁నగర": 3312,
      "యింది.": 3313,
      "▁అతడు": 3314,
      "▁ముంబై": 3315,
      "▁కలిగిన": 3316,
      "▁U": 3317,
      "నిమి": 3318,
      "▁మండి": 3319,
      "టన్": 3320,
      "పోయే": 3321,
      "ter": 3322,
      "ాయింట్": 3323,
      "బితా": 3324,
      "టర్లు": 3325,
      "▁ఆధారంగా": 3326,
      "వాడు": 3327,
      "▁సింగ": 3328,
      "▁సమావేశంలో": 3329,
      "▁వార్తలు": 3330,
      "మైనా": 3331,
      "▁నాలు": 3332,
      "కరి": 3333,
      "న్నది": 3334,
      "▁is": 3335,
      "▁వసూ": 3336,
      "▁చూసిన": 3337,
      "▁అన్నా": 3338,
      "లోక": 3339,
      "▁నిద్ర": 3340,
      "ులు,": 3341,
      "▁అంచనా": 3342,
      "ంచ్": 3343,
      "సింగ్": 3344,
      "య్యారు.": 3345,
      "▁ముని": 3346,
      "పాయ": 3347,
      "▁ప్రయత్నం": 3348,
      "ష్ప": 3349,
      "▁ప్రమాదం": 3350,
      "▁తీవ్రంగా": 3351,
      "కౌ": 3352,
      "▁చంప": 3353,
      "త్తులు": 3354,
      "▁గట్టి": 3355,
      "▁సూర్య": 3356,
      "▁నిర్వహించ": 3357,
      "▁ప్రారంభం": 3358,
      "▁నంద": 3359,
      "ందనే": 3360,
      "మే.": 3361,
      "▁పార్ల": 3362,
      "▁మనసు": 3363,
      "<newline>\"": 3364,
      "▁పన్ను": 3365,
      "ారే": 3366,
      "నీయ": 3367,
      "ించుచు": 3368,
      "▁సబ్": 3369,
      "గులు": 3370,
      "▁లేఖ": 3371,
      "మితి": 3372,
      "క్టో": 3373,
      "యాల్లో": 3374,
      "న్సిప": 3375,
      "ళ్లను": 3376,
      "▁దర్యాప్తు": 3377,
      "సిద్ధ": 3378,
      "▁సంబంధం": 3379,
      "రస్": 3380,
      "▁మధు": 3381,
      "▁అంగీ": 3382,
      "▁చెప్పారు.<newline>": 3383,
      "పాటి": 3384,
      "నికే": 3385,
      "▁లోక": 3386,
      "ాలీ": 3387,
      "మానా": 3388,
      "ig": 3389,
      "▁దీనిపై": 3390,
      "▁ఒప్ప": 3391,
      "▁వాహ": 3392,
      "▁చేయాలి.": 3393,
      "▁ప్రయత్నించ": 3394,
      "▁ఆరోగ": 3395,
      "▁స్మ": 3396,
      "మని,": 3397,
      "▁చేయా": 3398,
      "▁కార్పొ": 3399,
      "▁తీరు": 3400,
      "um": 3401,
      "వ్యూ": 3402,
      "డైన": 3403,
      "▁దళ": 3404,
      "▁వన": 3405,
      "లాండ్": 3406,
      "జరా": 3407,
      "▁పిల్లలు": 3408,
      "్రిక్": 3409,
      "డ్యూ": 3410,
      "లోనూ": 3411,
      "▁వ్యాఖ్యా": 3412,
      "▁రోడ్": 3413,
      "▁కలిగ": 3414,
      "▁ఉచిత": 3415,
      "▁ఉండాలి.": 3416,
      "▁మిగిలిన": 3417,
      "బూ": 3418,
      "జ్ఞా": 3419,
      "వంతంగా": 3420,
      ";<newline>-": 3421,
      "▁1.": 3422,
      "ang": 3423,
      "ev": 3424,
      "▁కంట": 3425,
      "▁నిమిష": 3426,
      "▁ఉపాధ్య": 3427,
      "▁గాలి": 3428,
      "లాలు": 3429,
      "▁పూర్వ": 3430,
      "▁మళ్ళ": 3431,
      "▁పిల్లల": 3432,
      "▁ఆధ్వ": 3433,
      "▁రక్షణ": 3434,
      "మ్,": 3435,
      "ొటో": 3436,
      "ల్చి": 3437,
      "if": 3438,
      "▁చేస్తుంది.": 3439,
      "▁ద్": 3440,
      "▁సీత": 3441,
      "▁పుట్టిన": 3442,
      "▁సినిమాను": 3443,
      "▁మత": 3444,
      "డితే": 3445,
      "క్షా": 3446,
      "▁వన్": 3447,
      "వాల్సిన": 3448,
      "▁ఆహ్": 3449,
      "ంట్లు": 3450,
      "▁మండలం": 3451,
      "▁సాయంత్రం": 3452,
      "▁సద": 3453,
      "▁ఐపీ": 3454,
      "▁బంధు": 3455,
      "నంగా": 3456,
      "మహ": 3457,
      "సము": 3458,
      "▁భవ": 3459,
      "రుడు": 3460,
      "▁చిత్రంలో": 3461,
      "▁మానవ": 3462,
      "▁సందర్శ": 3463,
      "పాల్": 3464,
      "st": 3465,
      "▁గుర్తింపు": 3466,
      "ళు": 3467,
      "ించుట": 3468,
      "▁సర్వే": 3469,
      "కలు": 3470,
      "▁నను": 3471,
      "రోధ": 3472,
      "కల్ప": 3473,
      "▁చది": 3474,
      "▁ఎవర": 3475,
      "▁ఓపె": 3476,
      "▁కనుక": 3477,
      "▁బట్టి": 3478,
      "▁చేస్తా": 3479,
      "▁విరా": 3480,
      "▁పర్యటన": 3481,
      "▁గారి": 3482,
      "దారులు": 3483,
      "▁పరుగులు": 3484,
      "జమా": 3485,
      "ర్యం": 3486,
      "▁హీరోగా": 3487,
      "▁కోరిక": 3488,
      "▁వస్త": 3489,
      "మాట": 3490,
      "-2": 3491,
      "న,": 3492,
      "స్థాయి": 3493,
      "▁లాక్": 3494,
      "▁వెల్లడించారు.": 3495,
      "▁తదితరులు": 3496,
      "▁నిత్య": 3497,
      "▁వారం": 3498,
      "▁ఉంటుంది": 3499,
      "▁బరువు": 3500,
      "▁అటు": 3501,
      "▁దేశం": 3502,
      "▁అవసరమైన": 3503,
      "▁బిగ్": 3504,
      "▁గారు": 3505,
      "▁సెక": 3506,
      "మూర్తి": 3507,
      "▁నిర్మాత": 3508,
      "▁కాక": 3509,
      "ించినట్లు": 3510,
      "ia": 3511,
      "▁ఈరోజు": 3512,
      "ళ్లలో": 3513,
      "▁ప్రతిపక్ష": 3514,
      "▁కేటాయ": 3515,
      "నామా": 3516,
      "▁ఆత్మహత్య": 3517,
      "▁ఎక్స్": 3518,
      "▁ఆయనకు": 3519,
      "▁తమకు": 3520,
      "▁మార్చ": 3521,
      "లైన": 3522,
      "ర్ల": 3523,
      "▁నివేదిక": 3524,
      "▁సినిమాకు": 3525,
      "రక్ష": 3526,
      "▁దర్శకత్వంలో": 3527,
      "▁పలువురు": 3528,
      "▁పం": 3529,
      "ర్,": 3530,
      "▁ఏప్రి": 3531,
      "యొక్క": 3532,
      "స్తున్నట్లు": 3533,
      "▁ప్రయత్ని": 3534,
      "▁ఊహ": 3535,
      "ట్లే": 3536,
      "▁సుఖ": 3537,
      "▁ఆసుపత్రి": 3538,
      "▁గ్యా": 3539,
      "▁అభిన": 3540,
      "చేయ": 3541,
      "▁చెంద": 3542,
      "▁నేడు": 3543,
      "ాడు": 3544,
      "▁ఎయిర్": 3545,
      "▁దీన్ని": 3546,
      "▁తొలగ": 3547,
      "సిక": 3548,
      "న్యూ": 3549,
      "వాన్ని": 3550,
      "▁ఫొటో": 3551,
      "▁చూపు": 3552,
      "వేత్త": 3553,
      "వాళ": 3554,
      "ర్యంలో": 3555,
      "▁నీకు": 3556,
      "ార్డ్": 3557,
      "▁ప్రణా": 3558,
      "▁దాంతో": 3559,
      "▁రాజ్": 3560,
      "▁సిరీస్": 3561,
      "▁22": 3562,
      "▁పడుతు": 3563,
      "▁ప్రతీ": 3564,
      "▁గ్రూ": 3565,
      "▁సుప్రీ": 3566,
      "▁పర్": 3567,
      "▁కొట్ట": 3568,
      "▁కొండ": 3569,
      "శ్చి": 3570,
      "▁తయారీ": 3571,
      "▁తీసుకుని": 3572,
      "కాలంలో": 3573,
      "మందు": 3574,
      "ద్దీ": 3575,
      "ండియా": 3576,
      "▁విమర్శలు": 3577,
      "ప్పుడు,": 3578,
      "▁చదవ": 3579,
      "▁రాము": 3580,
      "▁*": 3581,
      "రుద్ధ": 3582,
      "▁గీ": 3583,
      "ెక్స్": 3584,
      "ినేషన్": 3585,
      "▁చూపి": 3586,
      "గాని": 3587,
      "▁గౌరవ": 3588,
      "▁ప్రదేశ": 3589,
      "▁కూతు": 3590,
      "▁ట్రై": 3591,
      "▁అర్జు": 3592,
      "▁కన్న": 3593,
      "▁నల్ల": 3594,
      "▁స్పీ": 3595,
      "▁\"అ": 3596,
      "▁మద్య": 3597,
      "▁గడి": 3598,
      "దేవి": 3599,
      "▁చూస్తే": 3600,
      "▁అవగా": 3601,
      "ఘు": 3602,
      "▁నెలల": 3603,
      "▁నిరసన": 3604,
      "ారా?": 3605,
      "యాత్ర": 3606,
      "▁కొడుకు": 3607,
      "▁జనవరి": 3608,
      "▁సూచించారు.": 3609,
      "▁థియే": 3610,
      "▁జరుపు": 3611,
      "▁జాబితా": 3612,
      "పూర్ణ": 3613,
      ",000": 3614,
      "▁పవర్": 3615,
      "▁మాకు": 3616,
      "up": 3617,
      "▁భారీగా": 3618,
      "ంగం": 3619,
      "▁సాంకే": 3620,
      "నుంచి": 3621,
      "▁ఉండి": 3622,
      "▁అం": 3623,
      "▁యాద": 3624,
      "▁రాల": 3625,
      "గ్రహం": 3626,
      "జాల": 3627,
      "▁తీసి": 3628,
      "▁అధినే": 3629,
      "కాలం": 3630,
      "▁తెలంగాణలో": 3631,
      "▁కామెంట్": 3632,
      "▁చిత్రాన్ని": 3633,
      "▁ఫె": 3634,
      "▁రంగు": 3635,
      "▁బ్లాక్": 3636,
      "▁రంగా": 3637,
      "▁పురా": 3638,
      "▁క్షే": 3639,
      "▁తెచ్చు": 3640,
      "▁నాణ్య": 3641,
      "బోతున్న": 3642,
      "▁క్రికెట్": 3643,
      "▁హౌ": 3644,
      "▁అందరికీ": 3645,
      "ర్స్": 3646,
      "▁తెలుగులో": 3647,
      "▁ప్రత్యేకంగా": 3648,
      "▁కలుగు": 3649,
      "▁మంద": 3650,
      "రాజ్": 3651,
      "▁కోట్": 3652,
      "▁గాని": 3653,
      "▁శ్రే": 3654,
      "స్తి": 3655,
      "▁చెన్న": 3656,
      "దె": 3657,
      "▁ప్రస్తుత": 3658,
      "▁సంఘం": 3659,
      "బడ్డ": 3660,
      "▁రాశి": 3661,
      "▁పంచాయ": 3662,
      "చిత్ర": 3663,
      "▁కేటీఆర్": 3664,
      "▁l": 3665,
      "టెడ్": 3666,
      "ఠా": 3667,
      "దూ": 3668,
      "ధుల": 3669,
      "▁ఎప్పుడూ": 3670,
      "▁రేవ": 3671,
      "▁కవిత": 3672,
      "▁అడ్": 3673,
      "▁చెబుతున్నారు.": 3674,
      "కలా": 3675,
      "చీ": 3676,
      "▁కేంద్రా": 3677,
      "▁అధికారి": 3678,
      "▁తెరకెక్క": 3679,
      "▁సూచన": 3680,
      "దర": 3681,
      "ించాలి.": 3682,
      "▁కాన్": 3683,
      "▁ప్రవర్": 3684,
      "og": 3685,
      "▁గుజరా": 3686,
      "▁పంపిణీ": 3687,
      "▁మ్యూ": 3688,
      "బోయే": 3689,
      "▁సాధారణంగా": 3690,
      "మాల": 3691,
      "ి..": 3692,
      "ించింది": 3693,
      "▁ఆస్పత్రి": 3694,
      "▁శై": 3695,
      "సిటీ": 3696,
      "ha": 3697,
      "▁రక్ష": 3698,
      "▁కూర్చు": 3699,
      "▁ఎల్": 3700,
      "▁దిగ": 3701,
      "డై": 3702,
      "▁వయసు": 3703,
      "▁అంబ": 3704,
      "▁అనుభవ": 3705,
      "▁నియంత్ర": 3706,
      "▁గిరి": 3707,
      "▁పరిచయం": 3708,
      "▁పెంచు": 3709,
      "▁అభిమానులు": 3710,
      "....": 3711,
      "▁ప్రశ": 3712,
      "▁కెప్టె": 3713,
      "▁వస": 3714,
      "స్తుందని": 3715,
      "▁కలిపి": 3716,
      "▁తెలియజే": 3717,
      "▁)": 3718,
      "▁నూతన": 3719,
      "విద్య": 3720,
      "▁అనుభ": 3721,
      "వేల": 3722,
      "▁వ్యతిరేక": 3723,
      "▁23": 3724,
      "▁గవర్నర్": 3725,
      "ళా": 3726,
      "▁సెంటర్": 3727,
      "మిత": 3728,
      "▁మున్సిప": 3729,
      "▁కోరారు.": 3730,
      "▁ట్వీట్": 3731,
      "ంజ్": 3732,
      "రీర్": 3733,
      "రేట్": 3734,
      "▁ఇక్క": 3735,
      "▁సమావేశం": 3736,
      "▁గమనించ": 3737,
      "స్థాన్": 3738,
      "నను": 3739,
      "వాణా": 3740,
      "▁జీవితం": 3741,
      "▁మూడో": 3742,
      "▁తెలుసా": 3743,
      "▁ఆధ్వర్యంలో": 3744,
      "▁కోర్": 3745,
      "▁మళ్ళీ": 3746,
      "వులను": 3747,
      "▁సాయి": 3748,
      "▁వ్యతిరేకంగా": 3749,
      "లిం": 3750,
      "సారిగా": 3751,
      "ల్చ": 3752,
      "▁రష్యా": 3753,
      "▁సామర్థ": 3754,
      "ూహ": 3755,
      "▁శ్రీనివాస్": 3756,
      "▁టాక్": 3757,
      "▁అవుతుంది.": 3758,
      "రమైన": 3759,
      "▁సాంకేతిక": 3760,
      "▁వ్యాధి": 3761,
      "డల": 3762,
      "వానికి": 3763,
      "ana": 3764,
      "▁సుప్రీం": 3765,
      "▁బిల్లు": 3766,
      "▁మరికొ": 3767,
      "▁కాగా,": 3768,
      "▁ముందే": 3769,
      "▁నర్": 3770,
      "▁నిర్మి": 3771,
      "▁విద్యార్థులు": 3772,
      "దాన": 3773,
      "▁ఎవరూ": 3774,
      "▁ప్రభుత్వానికి": 3775,
      "▁టే": 3776,
      "▁పదవి": 3777,
      "గమ": 3778,
      "▁నిర్వహించిన": 3779,
      "ాలన్నారు.": 3780,
      "▁r": 3781,
      "టిఫిక": 3782,
      "▁సెట్": 3783,
      "▁అక్ష": 3784,
      "ాలిటీ": 3785,
      "▁వస్తుంది.": 3786,
      "ీయ": 3787,
      "▁విష్ణు": 3788,
      "▁తనను": 3789,
      "▁బస్సు": 3790,
      "లైన్": 3791,
      "బడింది.": 3792,
      "బద్ధ": 3793,
      "▁మల": 3794,
      "▁అగ్ని": 3795,
      "▁ఛా": 3796,
      "▁శరీర": 3797,
      "▁అరెస్టు": 3798,
      "▁వెళ్ళి": 3799,
      "ugu": 3800,
      ").": 3801,
      "గురు": 3802,
      "దుల": 3803,
      "ది,": 3804,
      "రని": 3805,
      "▁నారాయణ": 3806,
      "▁శిక్ష": 3807,
      "▁ఆమో": 3808,
      "▁మనిషి": 3809,
      "ంగ్స్": 3810,
      "▁వ్యాప్తంగా": 3811,
      "▁కెరీర్": 3812,
      "▁అవగాహన": 3813,
      "▁re": 3814,
      "వంతు": 3815,
      "▁వాళ్ల": 3816,
      "▁గుజరాత్": 3817,
      "▁రచయిత": 3818,
      "జిన": 3819,
      "▁కర్మ": 3820,
      "ట్టింది.": 3821,
      "▁దాడు": 3822,
      "క్సెస్": 3823,
      "▁ఎలక్ట": 3824,
      "▁అఖ": 3825,
      "▁కాదని": 3826,
      "▁అదుపు": 3827,
      "గతా": 3828,
      "▁ఏప్రిల్": 3829,
      "▁అన్నీ": 3830,
      "యన్స్": 3831,
      "▁రొ": 3832,
      "▁డిజ": 3833,
      "ించుకున్న": 3834,
      "▁షాక్": 3835,
      "ట్టుగా": 3836,
      "▁యాప్": 3837,
      "కృ": 3838,
      "కెట్లు": 3839,
      "▁భారతదేశ": 3840,
      "ట్టర్": 3841,
      "▁చుట్టూ": 3842,
      "విష": 3843,
      "▁పరిణా": 3844,
      "ళం": 3845,
      "ంలోనే": 3846,
      "▁అల్లు": 3847,
      "▁తెల్ల": 3848,
      "కాన్ని": 3849,
      "▁రిజర్": 3850,
      "s:": 3851,
      "రత్": 3852,
      "▁పండ": 3853,
      "▁రచన": 3854,
      "▁వుండ": 3855,
      "▁ఉపయోగించ": 3856,
      "▁మొదలైన": 3857,
      "▁దూరం": 3858,
      "రిన": 3859,
      "▁శిక్షణ": 3860,
      "గము": 3861,
      "▁దై": 3862,
      "ారానికి": 3863,
      "▁సెప్టె": 3864,
      "▁ఆటో": 3865,
      "▁వర్ణ": 3866,
      "▁రవాణా": 3867,
      "▁ప్రకృతి": 3868,
      "తము": 3869,
      "▁పరిష్క": 3870,
      "వేయ": 3871,
      "▁ఉన్నాయి.<newline>": 3872,
      "తున్నారు.<newline>": 3873,
      "దావరి": 3874,
      "▁ధ్వ": 3875,
      "న్యం": 3876,
      "elugu": 3877,
      "ముందు": 3878,
      "గానికి": 3879,
      "▁ప్రకటించారు.": 3880,
      "▁అవార్డు": 3881,
      "▁ఏక": 3882,
      "▁జర": 3883,
      "▁కుల": 3884,
      "కులు,": 3885,
      "స్స": 3886,
      "▁ప్రశా": 3887,
      "▁వాళ్లు": 3888,
      "▁కార్డు": 3889,
      "తోంది.<newline>": 3890,
      "▁ఉన్నట్లు": 3891,
      "▁కృష్": 3892,
      "చార్య": 3893,
      "▁ప్రణాళిక": 3894,
      "▁నరేంద్ర": 3895,
      "▁గృహ": 3896,
      "మునందు": 3897,
      "▁తేడా": 3898,
      "▁పాప": 3899,
      "▁బ్రే": 3900,
      "▁నిర్మాణం": 3901,
      "▁కామె": 3902,
      "▁ఇప్పటికీ": 3903,
      "▁కొత్తగా": 3904,
      "ట్యూ": 3905,
      "స్తారు": 3906,
      "▁గ్": 3907,
      "వారు.": 3908,
      "డల్": 3909,
      "▁కార్యక్రమం": 3910,
      "▁చక్ర": 3911,
      "▁పెట్టిన": 3912,
      "▁ఇబ్బంది": 3913,
      "▁వచ్చాయి.": 3914,
      "▁సంక్షేమ": 3915,
      "స్తున్నారని": 3916,
      "ూరి": 3917,
      "▁చాల": 3918,
      "డ్డీ": 3919,
      "▁ఉంటే,": 3920,
      "▁హ్యా": 3921,
      "▁పరమ": 3922,
      "ead": 3923,
      "▁నది": 3924,
      "▁అధికారిక": 3925,
      "▁అక్రమ": 3926,
      ".\\n": 3927,
      "▁అక్టో": 3928,
      "న్యు": 3929,
      "▁త్ర": 3930,
      "లక్ష్": 3931,
      "▁బ్యాంక్": 3932,
      "▁చెల్లి": 3933,
      "30": 3934,
      "▁అవ్వ": 3935,
      "▁కావడం": 3936,
      "▁పోలీసులకు": 3937,
      "▁ఏమీ": 3938,
      "▁ఉపయోగి": 3939,
      "▁దూరంగా": 3940,
      "▁పార్టీకి": 3941,
      "▁ఎంచు": 3942,
      "రాలను": 3943,
      "▁ఏడు": 3944,
      "ik": 3945,
      "▁వ్ర": 3946,
      "▁కావడంతో": 3947,
      "రిని": 3948,
      "▁ఇవ్వాలని": 3949,
      "▁ఉంటారు.": 3950,
      "ఫోన్": 3951,
      "▁చౌ": 3952,
      "▁ప్రకాశ": 3953,
      "▁అర్హ": 3954,
      "▁నిలు": 3955,
      "▁కఠ": 3956,
      "▁ముందుగా": 3957,
      "▁2023": 3958,
      "▁హాజర": 3959,
      "ఘా": 3960,
      "▁చరణ్": 3961,
      "▁నిర్వహణ": 3962,
      "▁విప": 3963,
      "ok": 3964,
      "▁అదనపు": 3965,
      "▁ఎంటర్": 3966,
      "▁రావడం": 3967,
      "▁టాప్": 3968,
      "వర్ణ": 3969,
      "▁విషయాలు": 3970,
      "నున్నట్లు": 3971,
      "▁సమాధానం": 3972,
      "▁సారి": 3973,
      "99": 3974,
      "▁వేసిన": 3975,
      "▁పొడి": 3976,
      "ార్ట్": 3977,
      "య్యే": 3978,
      "వేళ": 3979,
      "▁సర్వీ": 3980,
      "తక": 3981,
      "▁శాంతి": 3982,
      "▁చేసింది.<newline>": 3983,
      "పూర్వ": 3984,
      "▁నివార": 3985,
      "▁కోరుకు": 3986,
      "▁వినిపి": 3987,
      "▁అందించ": 3988,
      "▁అతనికి": 3989,
      "▁బిజె": 3990,
      "▁అంట": 3991,
      "▁వారిలో": 3992,
      "క్ట్": 3993,
      "కొన": 3994,
      "ండి,": 3995,
      "▁డౌన్": 3996,
      "▁రూపంలో": 3997,
      "▁కెమె": 3998,
      "▁అత్యధిక": 3999,
      "▁మొదట": 4000,
      "▁బిడ్డ": 4001,
      "చ్చింది.": 4002,
      "▁గురి": 4003,
      "త్రా": 4004,
      "▁లక్షణాలు": 4005,
      "▁సరఫ": 4006,
      "▁సిం": 4007,
      "మ్మడి": 4008,
      "▁అరెస్ట్": 4009,
      "▁తప్పని": 4010,
      "ించె": 4011,
      "▁లక్ష్మీ": 4012,
      "పరు": 4013,
      "దిన": 4014,
      "▁కూడిన": 4015,
      "▁పట్టణ": 4016,
      "దు.<newline>": 4017,
      "▁ర్": 4018,
      "▁ఆహారం": 4019,
      "ల్వ": 4020,
      "▁తెలిసిన": 4021,
      "ెక్ట": 4022,
      "▁సమీక్ష": 4023,
      "▁సార్లు": 4024,
      "▁నిరు": 4025,
      "గె": 4026,
      "మీర్": 4027,
      "ౌండ్": 4028,
      "▁నాటి": 4029,
      "షనర్": 4030,
      "ృప్తి": 4031,
      "▁చర్మ": 4032,
      "▁క్రే": 4033,
      "▁ఆమెను": 4034,
      "▁ధో": 4035,
      "డ్స్": 4036,
      "▁26": 4037,
      "▁వ్యవహార": 4038,
      "▁డేటా": 4039,
      "▁కస్ట": 4040,
      "ెక్కి": 4041,
      "▁చెప్పే": 4042,
      "షియల్": 4043,
      "▁మాటలు": 4044,
      "▁అగ్ర": 4045,
      "▁అమరా": 4046,
      "▁జీవితంలో": 4047,
      "▁28": 4048,
      "య్యి": 4049,
      "స్ట్రే": 4050,
      "▁ఇబ్బందులు": 4051,
      "▁భిన్న": 4052,
      "▁బాస్": 4053,
      "▁భారతీయ": 4054,
      "▁పడు": 4055,
      "దిగా": 4056,
      "ణాటక": 4057,
      "కునే": 4058,
      "శ్రా": 4059,
      "▁2.": 4060,
      "▁ఎన్నికలు": 4061,
      "ూ,": 4062,
      "ారనే": 4063,
      "సెంబర్": 4064,
      "▁పాలన": 4065,
      "్యానికి": 4066,
      "న్షన్": 4067,
      "ck": 4068,
      "▁ఎల్ల": 4069,
      "ాయో": 4070,
      "చేసుకు": 4071,
      "ఖీ": 4072,
      "▁మరీ": 4073,
      "▁టెస్టు": 4074,
      "ః,": 4075,
      "▁సిద్ధం": 4076,
      "▁క్వ": 4077,
      "▁అయింది.": 4078,
      "▁రైతులకు": 4079,
      "▁జైలు": 4080,
      "▁ఎప్పటి": 4081,
      "▁ఆమెకు": 4082,
      "▁ఖాళీ": 4083,
      "10": 4084,
      "ఒక": 4085,
      "▁దారి": 4086,
      "హాన్ని": 4087,
      "▁భవిష్యత్తు": 4088,
      "తి,": 4089,
      "▁ముగ్గురు": 4090,
      "ల్సీ": 4091,
      "▁రజ": 4092,
      "▁ప్రభాస్": 4093,
      "▁నమ": 4094,
      "▁జూన్": 4095,
      "▁జ్ఞాన": 4096,
      "ance": 4097,
      "రిత": 4098,
      "వాసం": 4099,
      "పడింది.": 4100,
      "▁స్టో": 4101,
      "▁కోహ్": 4102,
      "▁ప్రేక్షకుల": 4103,
      "▁గ్రామంలో": 4104,
      "వద్ద": 4105,
      "▁తను": 4106,
      "▁ఎప్పుడు": 4107,
      "▁తీసుకోవ": 4108,
      "▁సహాయం": 4109,
      "▁మిత్ర": 4110,
      "ప్పుడే": 4111,
      "హార్": 4112,
      "▁అంటున్నారు.": 4113,
      "▁అంటు": 4114,
      "వాని": 4115,
      "సమ": 4116,
      "బైల్": 4117,
      "▁సంగీ": 4118,
      "▁కురి": 4119,
      "ఃఖ": 4120,
      "ొచ్చ": 4121,
      "▁సృష్టి": 4122,
      "డత": 4123,
      "▁చల్ల": 4124,
      "▁తీసుకోవాలని": 4125,
      "బడుతు": 4126,
      "▁పద్": 4127,
      "▁తరచు": 4128,
      "▁పరా": 4129,
      "▁అవసరం.": 4130,
      "ంబులు": 4131,
      "▁నమోద": 4132,
      "▁నిపుణులు": 4133,
      "▁ఎటువంటి": 4134,
      "▁వ్యక్తిగత": 4135,
      "▁బాలిక": 4136,
      "▁చేస్తారు.": 4137,
      "బే": 4138,
      "మణి": 4139,
      "▁లేదు.<newline>": 4140,
      "▁విల": 4141,
      "▁ag": 4142,
      "▁2019": 4143,
      "▁వివాహ": 4144,
      "జ్జ": 4145,
      "▁చేసినట్లు": 4146,
      "▁యని": 4147,
      "▁రాష్ట్రం": 4148,
      "▁/": 4149,
      "బ్రవరి": 4150,
      "న్నారు": 4151,
      "ర్ణ": 4152,
      "ద్యో": 4153,
      "▁బిజెపి": 4154,
      "స్థాన": 4155,
      "▁గెలు": 4156,
      "▁పొందిన": 4157,
      "▁చిత్రానికి": 4158,
      "▁మధ్యా": 4159,
      "▁పడ్డ": 4160,
      "య్యాయి.": 4161,
      "▁ఆకట్టుకు": 4162,
      "▁e": 4163,
      "రాల్లో": 4164,
      "▁ట్యా": 4165,
      "కాయ": 4166,
      "▁అన్": 4167,
      "పత్ర": 4168,
      "గాన్ని": 4169,
      "▁జనసేన": 4170,
      "▁కాదు,": 4171,
      "పిన": 4172,
      "గుల": 4173,
      "▁పాత్రలో": 4174,
      "▁పుట్ట": 4175,
      "రించారు.": 4176,
      "▁సరఫరా": 4177,
      "ట్,": 4178,
      "త్తం": 4179,
      "్యో": 4180,
      "▁డ్రా": 4181,
      "▁ఆప్": 4182,
      "▁ఆయు": 4183,
      "స్తారు.<newline>": 4184,
      "▁చిరు": 4185,
      "రించే": 4186,
      "▁రైతుల": 4187,
      "▁శర్మ": 4188,
      "మ్మా": 4189,
      "▁సురే": 4190,
      "▁సేవల": 4191,
      "▁ప్రయాణి": 4192,
      "▁సినిమాతో": 4193,
      "▁అప్ర": 4194,
      "షీ": 4195,
      "▁ఆశ్ర": 4196,
      "▁అభిమాను": 4197,
      "▁ప్రాధాన్య": 4198,
      "▁అభ్యర్థి": 4199,
      "▁బోర్డు": 4200,
      "ము<newline>": 4201,
      "▁వీరు": 4202,
      "▁గది": 4203,
      "▁గర్": 4204,
      "▁గంటలకు": 4205,
      "▁చీఫ్": 4206,
      "▁త్వరగా": 4207,
      "షన్స్": 4208,
      "▁ధా": 4209,
      "▁వాడు": 4210,
      "▁పరిగణ": 4211,
      "▁విజయవాడ": 4212,
      "▁మెరుగు": 4213,
      "▁ఒత్తిడి": 4214,
      "▁పిటి": 4215,
      "ణానికి": 4216,
      "ండిన": 4217,
      "▁ధరలు": 4218,
      "కమైన": 4219,
      "వలయు": 4220,
      "▁కీర్": 4221,
      "▁ఎంట": 4222,
      "▁డబ్బులు": 4223,
      "దాని": 4224,
      "▁మనస్సు": 4225,
      "▁దాఖ": 4226,
      "బ్లి": 4227,
      "▁ప్రయోజన": 4228,
      "▁27": 4229,
      "▁చూపించ": 4230,
      "▁పంచాయతీ": 4231,
      "▁టీవీ": 4232,
      "కరంగా": 4233,
      "ల్లం": 4234,
      "దు,": 4235,
      "గింది.": 4236,
      "ందున": 4237,
      "▁ఎమ్మెల్సీ": 4238,
      "▁తగ్గు": 4239,
      "▁వేరే": 4240,
      "▁చెప్పుకొ": 4241,
      "1.": 4242,
      "జున": 4243,
      "ములకు": 4244,
      "▁60": 4245,
      "▁ఆరోపణలు": 4246,
      "▁సందర్భంలో": 4247,
      "▁గర్భ": 4248,
      "▁నిబంధన": 4249,
      "▁కర్ణాటక": 4250,
      "▁తేదీన": 4251,
      "కూలంగా": 4252,
      "ద్వారా": 4253,
      "▁ఫల": 4254,
      "▁ప్రచార": 4255,
      "డింగ్": 4256,
      "▁కృత": 4257,
      "ినేని": 4258,
      "▁పక్కన": 4259,
      "▁జుట్టు": 4260,
      "▁హాట్": 4261,
      "మాలు": 4262,
      "▁లైన్": 4263,
      "▁ఆయ": 4264,
      "డిపి": 4265,
      "▁మేనే": 4266,
      "డెంట్": 4267,
      "ెర": 4268,
      "నాథ్": 4269,
      "తన్య": 4270,
      "▁నిన్న": 4271,
      "ంగానే": 4272,
      "▁వేళ": 4273,
      "▁అధినేత": 4274,
      "▁బ్రాహ్మ": 4275,
      "▁దారుణ": 4276,
      "▁ఏకంగా": 4277,
      "ష్టా": 4278,
      "▁త్వరలోనే": 4279,
      "రాన్ని": 4280,
      "▁అతడి": 4281,
      "▁ముంద": 4282,
      "▁లోకి": 4283,
      "all": 4284,
      "▁తీర్పు": 4285,
      "గాయి.": 4286,
      "ారన్నారు.": 4287,
      "▁డాల": 4288,
      "▁క్లా": 4289,
      "▁ఇన్ని": 4290,
      "▁దక్షిణ": 4291,
      "రవే": 4292,
      "▁పవ": 4293,
      "▁నేరుగా": 4294,
      "▁అందువలన": 4295,
      "▁పాల్గొన్నారు.<newline>": 4296,
      "▁ప్రశ్నించారు.": 4297,
      "▁కఠిన": 4298,
      "▁కనుగొ": 4299,
      "▁జనా": 4300,
      "▁for": 4301,
      "▁తదితర": 4302,
      "నారాయణ": 4303,
      "లెట్": 4304,
      "▁మంజ": 4305,
      "తః": 4306,
      "▁కెప్టెన్": 4307,
      "▁1,": 4308,
      "▁బరి": 4309,
      "వు,": 4310,
      "▁ఏమిటి": 4311,
      "తృ": 4312,
      "▁పర్వ": 4313,
      "▁డిసెంబర్": 4314,
      "▁ప్రస్తా": 4315,
      "▁సాగ": 4316,
      "లేదు.<newline>": 4317,
      "లఁ": 4318,
      "▁కామ": 4319,
      "▁మహారాష్ట్ర": 4320,
      "▁ఉండాలని": 4321,
      "▁చేసి,": 4322,
      "▁చిత్త": 4323,
      "▁తార": 4324,
      "▁ఫ్రె": 4325,
      "ంటే.": 4326,
      "▁పత్రిక": 4327,
      "▁గుణ": 4328,
      "▁కర": 4329,
      "▁పార": 4330,
      "▁నాడు": 4331,
      "▁సెల్": 4332,
      "▁వరద": 4333,
      "▁నలుగు": 4334,
      "్యాలు": 4335,
      "రించింది.": 4336,
      "▁ఐటీ": 4337,
      "స్తాన్": 4338,
      "తనం": 4339,
      "▁పెట్టుబడి": 4340,
      "▁ఆడి": 4341,
      "▁పట్టి": 4342,
      "▁కట్టు": 4343,
      "▁సమర్థ": 4344,
      "త్సాహ": 4345,
      "ంటాయి.": 4346,
      "▁ఆఫర్": 4347,
      "▁యజమా": 4348,
      "రియ": 4349,
      "రక్షణ": 4350,
      "తి.": 4351,
      "▁పరీక్షలు": 4352,
      "▁బ్": 4353,
      "▁పరిస్థితులు": 4354,
      "▁విధానం": 4355,
      "▁(అ": 4356,
      "▁ముస్": 4357,
      "▁రైలు": 4358,
      "▁ఖాన్": 4359,
      "▁కోవిడ్": 4360,
      "ూర్పు": 4361,
      "▁ధై": 4362,
      "▁ఘో": 4363,
      "ya": 4364,
      "▁జంట": 4365,
      "▁హిందీ": 4366,
      "స్తులు": 4367,
      "▁ఉండటం": 4368,
      "▁పార్టీలో": 4369,
      "ధునిక": 4370,
      "▁పిలి": 4371,
      "ొచ్చు.": 4372,
      "▁కిలోమీ": 4373,
      "▁యాత్ర": 4374,
      "19": 4375,
      "స్తున్నాడు.": 4376,
      "▁నిజానికి": 4377,
      "▁టైటిల్": 4378,
      "▁ఋ": 4379,
      "సెస్": 4380,
      "▁సిద్ధంగా": 4381,
      "▁సచి": 4382,
      "▁లను": 4383,
      "ండ్లు": 4384,
      "హై": 4385,
      "▁చాలామంది": 4386,
      "▁st": 4387,
      "har": 4388,
      "▁మృత": 4389,
      "▁గూర్": 4390,
      "చరణ": 4391,
      "▁థియేటర్": 4392,
      "లను,": 4393,
      "▁ఫిబ్రవరి": 4394,
      "ార్గ": 4395,
      "▁కె.": 4396,
      "▁మిగతా": 4397,
      "▁రాష్ట్రాల్లో": 4398,
      "der": 4399,
      "▁చెన్నై": 4400,
      "టి.": 4401,
      "▁పాయింట్": 4402,
      "▁సూచి": 4403,
      "గడ": 4404,
      "op": 4405,
      "కేష్": 4406,
      "్యార": 4407,
      "▁దొంగ": 4408,
      "ారట.": 4409,
      "▁స్నా": 4410,
      "ించుకోవ": 4411,
      "▁సాధించ": 4412,
      "▁బ్రహ్": 4413,
      "▁వీటిని": 4414,
      "▁మధ్యాహ్": 4415,
      "▁ఫ్యాన్స్": 4416,
      "యుడు": 4417,
      "▁కొంచ": 4418,
      "▁తని": 4419,
      "ంఛ": 4420,
      "వాడు.": 4421,
      "▁చేసుకుంది.": 4422,
      "ద్రి": 4423,
      "▁భయం": 4424,
      "▁మెడి": 4425,
      "▁వాయిదా": 4426,
      "▁అటువంటి": 4427,
      "▁2022": 4428,
      "▁ఆటగా": 4429,
      "దార్": 4430,
      "థమిక": 4431,
      "▁మిన": 4432,
      "',": 4433,
      "▁అద్ద": 4434,
      "▁లక్షణ": 4435,
      "▁ట్విట్టర్": 4436,
      "టిక్": 4437,
      "కాలను": 4438,
      "▁రెడ్డి,": 4439,
      "ఙ్": 4440,
      "వుగా": 4441,
      "▁ముద్ర": 4442,
      "▁+": 4443,
      "స్క్": 4444,
      "▁పదే": 4445,
      "▁రేవంత్": 4446,
      "▁ఇరు": 4447,
      "▁రేపు": 4448,
      "▁ముక్క": 4449,
      "▁చేసుకుని": 4450,
      "▁మాట్లాడారు.": 4451,
      "▁సంచలన": 4452,
      "డ్,": 4453,
      "▁హిందూ": 4454,
      "▁ఎవరైనా": 4455,
      "▁సంస్థలు": 4456,
      "పోర్ట్": 4457,
      "▁ఎక": 4458,
      "నగ": 4459,
      "▁టికెట్": 4460,
      "▁పిలుపు": 4461,
      "▁కాద": 4462,
      "కొత్త": 4463,
      "▁రిజి": 4464,
      "▁వెళ్లిన": 4465,
      "ైంది.": 4466,
      "▁వర్మ": 4467,
      "▁వివరించారు.": 4468,
      "ట,": 4469,
      "నిక్": 4470,
      "▁వినియోగదారు": 4471,
      "▁వేసుకు": 4472,
      "ఇది": 4473,
      "▁విద్యార్థి": 4474,
      "▁be": 4475,
      "▁పథకం": 4476,
      "▁భక్తి": 4477,
      "▁ఆశ్చర్య": 4478,
      "చున్నది.": 4479,
      "▁శుభ్ర": 4480,
      "కున్నా": 4481,
      "▁శతా": 4482,
      "▁ఇటువంటి": 4483,
      "▁డిప": 4484,
      "▁అర్ధ": 4485,
      "▁డ్రైవర్": 4486,
      "▁అయ్యా": 4487,
      "▁నేర్చు": 4488,
      "por": 4489,
      "▁రాజీనామా": 4490,
      "▁అభినంద": 4491,
      "▁ప్రసాద్": 4492,
      "▁వేగంగా": 4493,
      "▁విధి": 4494,
      "ందా?": 4495,
      "ించినా": 4496,
      "▁ఫైన": 4497,
      "ob": 4498,
      "▁ఒక్కో": 4499,
      "పడుతున్న": 4500,
      "షిక": 4501,
      "▁కొంతమంది": 4502,
      "iss": 4503,
      "▁Y": 4504,
      "▁రోహి": 4505,
      "▁చేపట్టిన": 4506,
      "్యము": 4507,
      "▁సమంత": 4508,
      "▁తరచుగా": 4509,
      "▁కూర": 4510,
      "ః-": 4511,
      "▁యూనిట్": 4512,
      "▁Fin": 4513,
      "▁ఎనిమి": 4514,
      "▁డిగ్రీ": 4515,
      "▁ప్రాజెక్ట్": 4516,
      "▁పాజి": 4517,
      "▁ప్రత్యక్ష": 4518,
      "▁పండుగ": 4519,
      "▁నష్టం": 4520,
      "మ్మల్ని": 4521,
      "▁ఆల్": 4522,
      "▁ఉంచు": 4523,
      "▁ఆరోపించారు.": 4524,
      "▁హెచ్": 4525,
      "art": 4526,
      "▁జిల్ల": 4527,
      "▁హరీ": 4528,
      "▁ప్రాథమిక": 4529,
      "▁దీర్ఘ": 4530,
      "▁వెళ్లే": 4531,
      "▁వేశ": 4532,
      "▁పరిష్కరించ": 4533,
      "▁మును": 4534,
      "▁2021": 4535,
      "▁యను": 4536,
      "▁సంబంధిత": 4537,
      "▁తెలుస": 4538,
      "▁సంవత్సర": 4539,
      "▁పరిధిలో": 4540,
      "▁నాటికి": 4541,
      "పోతున్న": 4542,
      "తుండ": 4543,
      "ండెను.": 4544,
      "▁వికెట్": 4545,
      "▁అయ్యే": 4546,
      "▁శ్రద్ధ": 4547,
      "▁అలవా": 4548,
      "స్యా": 4549,
      "స్ట్ర": 4550,
      "త్యు": 4551,
      "▁చెప్పా": 4552,
      "▁జంతు": 4553,
      "తులతో": 4554,
      "▁మొబైల్": 4555,
      "▁టీమ్": 4556,
      "స్తోందని": 4557,
      "▁కాలేజీ": 4558,
      "▁అట": 4559,
      "▁విశ్లే": 4560,
      "మెంటు": 4561,
      "ార్ధ": 4562,
      "▁ఎడ": 4563,
      "కాంక్ష": 4564,
      "▁బిజీ": 4565,
      "▁సూత్ర": 4566,
      "▁బయలు": 4567,
      "▁ప్రశంస": 4568,
      "▁ఉన్నత": 4569,
      "▁యూనివర్": 4570,
      "▁వేదికగా": 4571,
      "▁వేడి": 4572,
      "స్మా": 4573,
      "▁చేస్తామని": 4574,
      "శాస్త్ర": 4575,
      "▁భే": 4576,
      "దారి": 4577,
      "కృత": 4578,
      "▁ఫస్ట్": 4579,
      "▁శేష": 4580,
      "న్.": 4581,
      "▁కొర": 4582,
      "▁ఉగ్ర": 4583,
      "▁ప్రయోగ": 4584,
      "▁వ్యాక్సి": 4585,
      "నేను": 4586,
      "▁పరిక": 4587,
      "శ్చిమ": 4588,
      "▁పెద్దగా": 4589,
      "▁పంజా": 4590,
      "ప్రతి": 4591,
      "▁సలహా": 4592,
      "▁వచ్చు": 4593,
      "ప్పటికీ,": 4594,
      "రావు,": 4595,
      "▁మహమ్మ": 4596,
      "▁మ్యూజి": 4597,
      "పులు": 4598,
      "▁అనారో": 4599,
      "▁శ్రీనివాస": 4600,
      "▁రూపాయల": 4601,
      "▁సెప్టెంబర్": 4602,
      "వయ": 4603,
      "▁దార": 4604,
      "▁భోజ": 4605,
      "మిత్": 4606,
      "▁క్షేత్ర": 4607,
      "ాలూ": 4608,
      "▁ఇండియన్": 4609,
      "బొ": 4610,
      "▁సక్సెస్": 4611,
      "ఫిక్": 4612,
      "సింహ": 4613,
      "జో": 4614,
      "ార్జి": 4615,
      "గాల్లో": 4616,
      "▁మఱి": 4617,
      "▁పేర్కొంది.": 4618,
      "ండును.": 4619,
      "▁సంస్థల": 4620,
      "తానికి": 4621,
      "లకు,": 4622,
      "▁ఫార్": 4623,
      "▁నేటి": 4624,
      "▁వరుసగా": 4625,
      "మార": 4626,
      "మిండియా": 4627,
      "▁స్వయంగా": 4628,
      "▁ఆరా": 4629,
      "▁అనంత": 4630,
      "▁వాయు": 4631,
      "▁కావున": 4632,
      "స్టార్": 4633,
      "▁ఎర్ర": 4634,
      "పడుతుంది.": 4635,
      "▁అధికారంలోకి": 4636,
      "ంగళూరు": 4637,
      "ులతో": 4638,
      "▁దర్శకత్వం": 4639,
      "▁తిరుపతి": 4640,
      "జినెస్": 4641,
      "▁చూసే": 4642,
      "వుడు": 4643,
      "▁మార్పులు": 4644,
      "▁ల్యా": 4645,
      "▁తీయ": 4646,
      "దానికి": 4647,
      "▁కమ్యూ": 4648,
      "ఁడు.": 4649,
      "ess": 4650,
      "సి,": 4651,
      "తాడు.": 4652,
      "▁హృదయ": 4653,
      "▁`": 4654,
      "▁వ్యవహరి": 4655,
      "▁పట్టుకు": 4656,
      "ాలయ": 4657,
      "▁ఎగు": 4658,
      "పుర": 4659,
      "▁షి": 4660,
      "▁తెలుగుదేశం": 4661,
      "▁రేటు": 4662,
      "▁ర్యా": 4663,
      "▁సాను": 4664,
      "▁భాగస్వా": 4665,
      "▁భర్తీ": 4666,
      "మహా": 4667,
      "▁అన్య": 4668,
      "▁కుటుంబం": 4669,
      "▁ఎంట్రీ": 4670,
      "ాలన్న": 4671,
      "నం,": 4672,
      "▁రాజ్యా": 4673,
      "▁దయ": 4674,
      "▁ఫలితంగా": 4675,
      "స్టే": 4676,
      "మంత": 4677,
      "▁సరే": 4678,
      "▁పిటిషన్": 4679,
      "ep": 4680,
      "తంత్ర": 4681,
      "▁షెడ్యూ": 4682,
      "▁నెట్": 4683,
      "ల్సిందే": 4684,
      "వును": 4685,
      "▁పెట్రో": 4686,
      "▁ప్రదర్శన": 4687,
      "మర": 4688,
      "▁నిషే": 4689,
      "▁లేకపోతే": 4690,
      "ేంద్ర": 4691,
      "కాంత్": 4692,
      "యుఁ": 4693,
      "నెల": 4694,
      "▁పెట్టుబడు": 4695,
      "▁ఇంట": 4696,
      "▁జర్": 4697,
      "రాష్ట్ర": 4698,
      "▁జిల్లాలోని": 4699,
      "గూడ": 4700,
      "▁గుడ్": 4701,
      "ాయని,": 4702,
      "కేషన్": 4703,
      "▁బిజినెస్": 4704,
      "▁31": 4705,
      "నాటి": 4706,
      "▁రఘు": 4707,
      "▁చేస్తోంది.": 4708,
      "▁నాయక": 4709,
      "▁నాని": 4710,
      "పాదన": 4711,
      "ment": 4712,
      "▁శంకర్": 4713,
      "▁ఏర్పాట్లు": 4714,
      "గౌ": 4715,
      "▁వడ్డీ": 4716,
      "▁పరిస్థితుల్లో": 4717,
      "పట్": 4718,
      "▁సందే": 4719,
      "మండ": 4720,
      "ములు,": 4721,
      "▁నుంచే": 4722,
      "▁ఉద్యోగ": 4723,
      "కున్నారు.": 4724,
      "యులు": 4725,
      "దాన్ని": 4726,
      "▁టీమిండియా": 4727,
      "▁ప్రభావ": 4728,
      "▁పోలి": 4729,
      "▁చెప్": 4730,
      "త్న": 4731,
      "మిలీ": 4732,
      "▁క్రింద": 4733,
      "▁ఉపాధి": 4734,
      "▁నెలలో": 4735,
      "▁మిలియన్": 4736,
      "▁దూర": 4737,
      "▁ఆగస్టు": 4738,
      "▁ప్రయత్నాలు": 4739,
      "▁వంశ": 4740,
      "▁ఇందుకు": 4741,
      "▁పొర": 4742,
      "rav": 4743,
      "▁విధా": 4744,
      "ష్,": 4745,
      "▁మంట": 4746,
      "▁డో": 4747,
      "నాలజీ": 4748,
      "హాలు": 4749,
      "▁నాయుడు": 4750,
      "▁చేశారు": 4751,
      "▁హను": 4752,
      "ేయ": 4753,
      "▁అక్టోబర్": 4754,
      "'.": 4755,
      "▁ప్రమో": 4756,
      "▁తరలి": 4757,
      "▁అల్": 4758,
      "▁సినిమాల్లో": 4759,
      "▁అయ్యారు.": 4760,
      "▁టో": 4761,
      "▁చేయవచ్చు.": 4762,
      "▁నిశ్చ": 4763,
      "▁పాజిటివ్": 4764,
      "దర్": 4765,
      "పెద్ద": 4766,
      "▁ఫేస్": 4767,
      "▁స్థాని": 4768,
      "ించడంతో": 4769,
      "▁శత్రు": 4770,
      "▁బహిరంగ": 4771,
      "▁29": 4772,
      "▁నువ్వు": 4773,
      "▁జాగ్రత్తగా": 4774,
      "▁సాధించిన": 4775,
      "▁కుక్క": 4776,
      "ణిక": 4777,
      "▁తరగతి": 4778,
      "ill": 4779,
      "▁కన్నా": 4780,
      "2.": 4781,
      "▁రంగంలో": 4782,
      "▁అమరావతి": 4783,
      "▁బది": 4784,
      "కి,": 4785,
      "▁సంప్రద": 4786,
      "ట్లు,": 4787,
      "రళ": 4788,
      "కూర్": 4789,
      "▁అనుకున్న": 4790,
      "▁శరీరం": 4791,
      "▁ఇటు": 4792,
      "▁తెగ": 4793,
      "▁తీసుకోవడం": 4794,
      "▁సమాజ": 4795,
      "▁కొనసాగ": 4796,
      "▁Finance": 4797,
      "▁ఉన్నప్పుడు": 4798,
      "▁2024": 4799,
      "oll": 4800,
      "ములలో": 4801,
      "▁ఫలితాలు": 4802,
      "▁నొక": 4803,
      "▁మార్గం": 4804,
      "పెట్టి": 4805,
      "తులు,": 4806,
      "కవి": 4807,
      "హరి": 4808,
      "▁తీసుకురా": 4809,
      "▁చేతిలో": 4810,
      "ud": 4811,
      "▁పోయి": 4812,
      "▁మహిళలు": 4813,
      "్రూ": 4814,
      "▁ఉత్పత్తులు": 4815,
      "ub": 4816,
      "▁డిజి": 4817,
      "▁హోటల్": 4818,
      "▁ఉన్నాయి": 4819,
      "▁చేసినా": 4820,
      "▁ప్రజలను": 4821,
      "▁నటుడు": 4822,
      "▁రెడీ": 4823,
      "▁ఆర్టి": 4824,
      "బల": 4825,
      "▁సంజయ్": 4826,
      "▁కార్యక్రమాలు": 4827,
      "▁హోదా": 4828,
      "ళ్లుగా": 4829,
      "చారు.": 4830,
      "నెట్": 4831,
      "ముని": 4832,
      "ంటికి": 4833,
      "▁అత్యా": 4834,
      "ంపులు": 4835,
      "▁ఢ": 4836,
      "డాన్ని": 4837,
      "ష్టి": 4838,
      "ండో": 4839,
      "▁నెటి": 4840,
      "▁గ్లా": 4841,
      "సుల": 4842,
      "▁ప్రారంభించారు.": 4843,
      "▁విదేశీ": 4844,
      "▁us": 4845,
      "▁సమర్": 4846,
      "రాలి": 4847,
      "▁ప్రె": 4848,
      "\\nఅ": 4849,
      "▁వాదన": 4850,
      "▁శబ్ద": 4851,
      "▁ఇప్పటివరకు": 4852,
      "ందరూ": 4853,
      "▁ప్రైవేట్": 4854,
      "పోత": 4855,
      "▁గోదావరి": 4856,
      "▁బండి": 4857,
      "▁విన్న": 4858,
      "▁రాజా": 4859,
      "ant": 4860,
      "▁వరల్డ్": 4861,
      "▁నిధులు": 4862,
      "▁ఆలయ": 4863,
      "▁టర్": 4864,
      "తమ": 4865,
      "▁గంగ": 4866,
      "పోతుంది.": 4867,
      "▁బ్యాక్": 4868,
      "▁బెంగళూరు": 4869,
      "▁గ్రే": 4870,
      "▁ప్రకటించింది.": 4871,
      "▁ఒకసారి": 4872,
      "ంగిక": 4873,
      "▁గౌర": 4874,
      "డూ": 4875,
      "▁అవినీ": 4876,
      "్రు": 4877,
      "▁విమాన": 4878,
      "ect": 4879,
      "ెన": 4880,
      "డెన్": 4881,
      "పిక్": 4882,
      "స్ట్రేలియా": 4883,
      "యం,": 4884,
      "▁బాలు": 4885,
      "▁ఉష్ణ": 4886,
      "▁కార్యకలా": 4887,
      "కపోవడంతో": 4888,
      "పటి": 4889,
      "▁రాష్ట్రాల": 4890,
      "ండుట": 4891,
      "▁అనుగుణ": 4892,
      "▁నాగార్": 4893,
      "విధంగా": 4894,
      "▁బోధ": 4895,
      "స్తాడు.": 4896,
      "▁ago": 4897,
      "▁నున్న": 4898,
      "▁యాదవ్": 4899,
      "కుంటే": 4900,
      "▁యాక్షన్": 4901,
      "▁Telugu": 4902,
      "▁2020": 4903,
      "..<newline>-": 4904,
      "ప్పున": 4905,
      "▁హెల్": 4906,
      "ith": 4907,
      "▁నిజం": 4908,
      "మయ": 4909,
      "▁రూపాయలు": 4910,
      "▁అల్ల": 4911,
      "▁రుణ": 4912,
      "▁సంగీతం": 4913,
      "▁త్వ": 4914,
      "▁అలంక": 4915,
      "▁సంఖ్యలో": 4916,
      "▁బార": 4917,
      "▁గ్రూప్": 4918,
      "▁నార": 4919,
      "డంపై": 4920,
      "▁వ్యక్తులు": 4921,
      "ాలుగా": 4922,
      "▁చేశారని": 4923,
      "▁కరె": 4924,
      "▁తేలి": 4925,
      "▁ఉండగా": 4926,
      "వుని": 4927,
      "▁చెందు": 4928,
      "▁వివాహం": 4929,
      "▁వచ్చారు.": 4930,
      "▁ఖచ్చితంగా": 4931,
      "▁మద్యం": 4932,
      "▁విర": 4933,
      "సియా": 4934,
      "▁ఎత్తున": 4935,
      "మనే": 4936,
      "▁ఉంది,": 4937,
      "తోనే": 4938,
      "▁టెక్నాలజీ": 4939,
      "▁పద్య": 4940,
      "▁ఉమ్మడి": 4941,
      "▁స్వాత": 4942,
      "లంక": 4943,
      "▁అంతకు": 4944,
      "▁వ్యాఖ్యానించ": 4945,
      "న్సర్": 4946,
      "పోవ": 4947,
      "▁చట్టం": 4948,
      "▁తీసుకొని": 4949,
      "▁చేస్తున్నారు.<newline>": 4950,
      "▁మెద": 4951,
      "▁వయస్సు": 4952,
      "తోపాటు": 4953,
      "కాలిక": 4954,
      "గ్రామ్": 4955,
      "▁పడే": 4956,
      "యున్న": 4957,
      "▁నేల": 4958,
      "▁శీ": 4959,
      "▁199": 4960,
      "వాన్": 4961,
      "▁పెరగ": 4962,
      "ాలు.": 4963,
      "▁ఫుల్": 4964,
      "▁సంగీత": 4965,
      "రద": 4966,
      "▁ప్రయాణ": 4967,
      "స్తూనే": 4968,
      "▁ప్రచు": 4969,
      "లాది": 4970,
      "వైన": 4971,
      "▁వృత్తి": 4972,
      "ందన్న": 4973,
      "▁ఎపి": 4974,
      "▁లబ్": 4975,
      "రస": 4976,
      "▁పశ్చిమ": 4977,
      "దొ": 4978,
      "▁వదిలి": 4979,
      "ాలి,": 4980,
      "▁బుద్ధి": 4981,
      "ెయిన్": 4982,
      "▁సమర్ప": 4983,
      "▁కార్యాలయంలో": 4984,
      "▁కొనసాగి": 4985,
      "▁నాణ్యత": 4986,
      "▁లుక్": 4987,
      "▁క్యూ": 4988,
      "ide": 4989,
      "ార్టీ": 4990,
      "▁తూర్పు": 4991,
      "▁సౌకర్": 4992,
      "డిక": 4993,
      "సమే": 4994,
      "పెట్టిన": 4995,
      "యేషన్": 4996,
      "రుని": 4997,
      "▁ఒకరు": 4998,
      "▁అందువల్ల": 4999,
      "▁గొడవ": 5000,
      "▁కంటె": 5001,
      "▁అధ్యయ": 5002,
      "▁గలి": 5003,
      "▁వచ్చా": 5004,
      "▁కోహ్లీ": 5005,
      "▁చేయడంతో": 5006,
      "▁ఇటీవ": 5007,
      "ంత్రా": 5008,
      "▁మార్కెట్లో": 5009,
      "స్థా": 5010,
      "▁గుంటూ": 5011,
      "▁తరహా": 5012,
      "ందరికీ": 5013,
      "▁గ్రామానికి": 5014,
      "థ్": 5015,
      "ate": 5016,
      "▁పాన్": 5017,
      "పున": 5018,
      "▁జాన": 5019,
      "ంగల్": 5020,
      "▁ఉన్నాయని": 5021,
      "▁మోహన్": 5022,
      "▁స్పీకర్": 5023,
      "80": 5024,
      "పిల్ల": 5025,
      "▁మోసం": 5026,
      "ఫార్": 5027,
      "▁నిన్ను": 5028,
      "▁రోహిత్": 5029,
      "ంకా": 5030,
      "▁శ్రీరా": 5031,
      "▁గడు": 5032,
      "▁సేవలు": 5033,
      "వెల్": 5034,
      "ఇక": 5035,
      "▁టిడిపి": 5036,
      "▁మాట్లాడుతూ.": 5037,
      "▁ఈసారి": 5038,
      "ాలు,": 5039,
      "య్య,": 5040,
      "▁స్పెషల్": 5041,
      "కొన్న": 5042,
      "కర్య": 5043,
      "▁పశు": 5044,
      "▁ఏపీలో": 5045,
      "▁గూడ": 5046,
      "ల్లోని": 5047,
      "▁కాబట్టి,": 5048,
      "▁కాంబ": 5049,
      "▁రెండే": 5050,
      "▁నూనె": 5051,
      "వసర": 5052,
      "▁బదిలీ": 5053,
      "▁పుష్ప": 5054,
      "మూల": 5055,
      "ర్ష": 5056,
      "▁తల్లిదండ్రులు": 5057,
      "▁ఇన్స్టా": 5058,
      "▁నాయకు": 5059,
      "హ్య": 5060,
      "▁ఫ్యామిలీ": 5061,
      "▁అనుస": 5062,
      "▁ఇవ్వడం": 5063,
      "▁బైక్": 5064,
      "▁అట్టి": 5065,
      "▁రాసిన": 5066,
      "ip": 5067,
      "▁ద్వి": 5068,
      "▁సమస్యలను": 5069,
      "▁సాయం": 5070,
      "వులకు": 5071,
      "▁వాట్": 5072,
      "డలు": 5073,
      "బట్ట": 5074,
      "▁సంప్రదాయ": 5075,
      "ొద్ద": 5076,
      "▁కావాలని": 5077,
      "బ్రహ్మ": 5078,
      "▁కుమార్తె": 5079,
      "▁బీఆర్ఎస్": 5080,
      "▁హాజరు": 5081,
      "▁దీప": 5082,
      "▁:<newline>": 5083,
      "ఫ్ర": 5084,
      "▁ఎగ్": 5085,
      "యని": 5086,
      "▁ప్రాణాలు": 5087,
      "▁అవుతున్న": 5088,
      "▁వివే": 5089,
      "▁(2": 5090,
      "రులో": 5091,
      "▁భేద": 5092,
      "▁విద్యార్థులకు": 5093,
      "▁స్వాధీ": 5094,
      "▁బర్": 5095,
      "▁అంగీకరించ": 5096,
      "▁సినిమాల": 5097,
      "వన్నీ": 5098,
      "▁సంభవ": 5099,
      "ార్జ్": 5100,
      "ప్రసా": 5101,
      "▁నోటీ": 5102,
      "▁విమర్శించారు.": 5103,
      "రాత్రి": 5104,
      "▁మున్సిపల్": 5105,
      "త్మిక": 5106,
      "కటి": 5107,
      "నాల్లో": 5108,
      "ist": 5109,
      "▁అర్జున్": 5110,
      "▁సందర్": 5111,
      "▁కల్పి": 5112,
      "ies": 5113,
      "▁కన్ను": 5114,
      "మ్మే": 5115,
      "▁ముస్లిం": 5116,
      "▁కాలు": 5117,
      "▁ఫీచర్": 5118,
      "▁మానసిక": 5119,
      "ండింగ్": 5120,
      "▁ఇచ్చింది.": 5121,
      "▁కాంట": 5122,
      "▁ఎవరో": 5123,
      "▁పుర": 5124,
      "గని": 5125,
      "ఁగు": 5126,
      "▁సంక": 5127,
      "▁లోకేష్": 5128,
      "▁దుఃఖ": 5129,
      "ప్ల": 5130,
      "▁సదు": 5131,
      "సభ్య": 5132,
      "▁పండి": 5133,
      "▁Read": 5134,
      "▁శాస్త": 5135,
      "చేసిన": 5136,
      "▁నిజంగా": 5137,
      "▁దేశాల": 5138,
      "▁హోం": 5139,
      "▁పాదయాత్ర": 5140,
      "ికే": 5141,
      "తార": 5142,
      "▁కానున్న": 5143,
      "▁పాలు": 5144,
      "▁చేసుకున్నారు.": 5145,
      "▁లైంగిక": 5146,
      "▁వినో": 5147,
      "▁తనిఖీ": 5148,
      "▁ఇంద్ర": 5149,
      "▁ఒప్పు": 5150,
      "కపోవడం": 5151,
      "▁నియంత్రణ": 5152,
      "▁ఇంటర్వ్యూ": 5153,
      "తగా": 5154,
      "▁నాన్న": 5155,
      "ore": 5156,
      "▁మేలు": 5157,
      "శాన్ని": 5158,
      "▁ఇతి": 5159,
      "▁బలమైన": 5160,
      "▁ఔష": 5161,
      "▁రాక్ష": 5162,
      "▁భాగం": 5163,
      "▁గ్రీన్": 5164,
      "so": 5165,
      "▁వెలువ": 5166,
      "▁ఆధునిక": 5167,
      "▁పైకి": 5168,
      "▁తొలగి": 5169,
      "▁నంబర్": 5170,
      "▁నాశ": 5171,
      "్రీయ": 5172,
      "▁గమన": 5173,
      "▁80": 5174,
      "▁వాల": 5175,
      "▁స్కో": 5176,
      "న్నాను.": 5177,
      "దశ": 5178,
      "▁స్థానం": 5179,
      "▁బంగారం": 5180,
      "▁ఆగ్రహం": 5181,
      "▁ఉత్తర్": 5182,
      "▁భౌ": 5183,
      "ధర్మ": 5184,
      "▁అనిప": 5185,
      "▁ఖండ": 5186,
      "▁లైఫ్": 5187,
      "▁ఉత్స": 5188,
      "▁లొ": 5189,
      "▁సన్నివేశ": 5190,
      "▁వ్యాక్సిన్": 5191,
      "వరు": 5192,
      "ెడి": 5193,
      "▁దంప": 5194,
      "▁సీరి": 5195,
      "ెస్టి": 5196,
      "వరీ": 5197,
      "▁ఆదాయ": 5198,
      "▁ఆస్ట్రేలియా": 5199,
      "▁నవంబర్": 5200,
      "▁తెలుపు": 5201,
      "▁దేశవ్యాప్తంగా": 5202,
      "▁ఓటు": 5203,
      "▁కనిపించే": 5204,
      "▁వ్యక్త": 5205,
      "ఫై": 5206,
      "▁3.": 5207,
      "వృత్తి": 5208,
      "కత": 5209,
      "▁వీలు": 5210,
      "▁మధ్యలో": 5211,
      "ంప్ర": 5212,
      "▁పరిమా": 5213,
      "కప్": 5214,
      "▁వసూలు": 5215,
      "▁మగు": 5216,
      "▁ఎఫ్": 5217,
      "▁ధన": 5218,
      "మాను": 5219,
      "▁దాఖలు": 5220,
      "▁తప": 5221,
      "▁బట్ట": 5222,
      "▁తీవ్రమైన": 5223,
      "▁భావన": 5224,
      "▁ప్రమాణ": 5225,
      "▁న్యూఢిల్లీ": 5226,
      "aj": 5227,
      "తాలు": 5228,
      "▁లక్షలు": 5229,
      "యై": 5230,
      "ణాన్ని": 5231,
      "స్తూ,": 5232,
      "హద్దు": 5233,
      "▁..": 5234,
      "▁బాక్": 5235,
      "మీరు": 5236,
      "ravel": 5237,
      "▁రోజూ": 5238,
      "ish": 5239,
      "▁ప్రభావిత": 5240,
      "▁వృద్ధి": 5241,
      "▁ఉత్పత్తు": 5242,
      "ని.": 5243,
      "▁కడుపు": 5244,
      "ముఖ్య": 5245,
      "ంసం": 5246,
      "గాలను": 5247,
      "తోందని": 5248,
      "▁వివరణ": 5249,
      "▁బొమ్మ": 5250,
      "▁వేరు": 5251,
      "▁j": 5252,
      "▁మ్యాచ్లో": 5253,
      "ద్వే": 5254,
      "ల్లోనే": 5255,
      "▁విజ్ఞ": 5256,
      "విజన్": 5257,
      "▁మధ్యాహ్నం": 5258,
      "▁వివరాలను": 5259,
      "▁ఆహ్వా": 5260,
      "▁తప్పకుండా": 5261,
      "▁వృద్ధ": 5262,
      "'t": 5263,
      "▁తమిళనాడు": 5264,
      "▁కమిషనర్": 5265,
      "శేఖర్": 5266,
      "▁అసా": 5267,
      "బడుతుంది.": 5268,
      "హీన": 5269,
      "పరచ": 5270,
      "▁సాహిత్య": 5271,
      "నఁ": 5272,
      "▁ఫ్లా": 5273,
      "▁సీపీ": 5274,
      "▁వాణి": 5275,
      "మధ్య": 5276,
      "మంతా": 5277,
      "▁ప్రియ": 5278,
      "▁వైద్యులు": 5279,
      "ఎంసీ": 5280,
      "▁నెల్ల": 5281,
      "▁సత్": 5282,
      "▁con": 5283,
      "▁ఫాలో": 5284,
      "▁కెమెరా": 5285,
      "▁తదు": 5286,
      "▁పిలు": 5287,
      "▁క్రీడా": 5288,
      "▁అకౌ": 5289,
      "▁ఆదర్శ": 5290,
      "▁జనరల్": 5291,
      "రి,": 5292,
      "▁ప్రోత్స": 5293,
      "▁ఆర్టీసీ": 5294,
      "▁సభలో": 5295,
      "▁స్టీ": 5296,
      "న్నాడు": 5297,
      "▁తరలించారు.": 5298,
      "యును": 5299,
      "▁వాస్తవ": 5300,
      "స్పె": 5301,
      "▁వాళ్ళు": 5302,
      "▁మంజూరు": 5303,
      "హే": 5304,
      "▁Travel": 5305,
      "▁మెట్రో": 5306,
      "నది": 5307,
      "▁ఆకర్ష": 5308,
      "▁శిశు": 5309,
      "వరం": 5310,
      "▁పెంచే": 5311,
      "▁మృతదే": 5312,
      "ః<newline>-": 5313,
      "▁చేర్చ": 5314,
      "డవు": 5315,
      "▁విలువైన": 5316,
      "వేదన": 5317,
      "▁మాయ": 5318,
      "▁ఒకవేళ": 5319,
      "▁సుప్రీంకోర్టు": 5320,
      "చ్చని": 5321,
      "వర్గ": 5322,
      "భాష": 5323,
      "▁చేతి": 5324,
      "\",": 5325,
      "▁దశలో": 5326,
      "▁తప్పనిసరి": 5327,
      "▁౧": 5328,
      "ట్లయితే": 5329,
      "వి,": 5330,
      "జీవ": 5331,
      "▁చెల": 5332,
      "▁చోటుచేసుకు": 5333,
      "స్యం": 5334,
      "▁దాన": 5335,
      "▁అందజే": 5336,
      "▁వర్గాలు": 5337,
      "▁జ్యో": 5338,
      "▁క్రియే": 5339,
      "▁ఈవె": 5340,
      "▁సిస్ట": 5341,
      "▁అనిపి": 5342,
      "▁రుచి": 5343,
      "▁నడ": 5344,
      "లాంటి": 5345,
      "▁ఇల్లు": 5346,
      "▁జోడ": 5347,
      "▁ఏది": 5348,
      "▁సిద్ద": 5349,
      "▁స్థల": 5350,
      "▁సరిహద్దు": 5351,
      "▁ఇంక": 5352,
      "▁కేరళ": 5353,
      "▁అందమైన": 5354,
      "▁35": 5355,
      "మన్న": 5356,
      "దురు": 5357,
      "▁ఇవాళ": 5358,
      "▁మొదలై": 5359,
      "▁రావడంతో": 5360,
      "నాం": 5361,
      "▁పోయ": 5362,
      "పోయాడు.": 5363,
      "▁అనుకూలంగా": 5364,
      "▁కరు": 5365,
      "▁కూర్చ": 5366,
      "▁బాధ్యతలు": 5367,
      "▁అంటారు.": 5368,
      "ణుని": 5369,
      "ందలి": 5370,
      "▁సురక్ష": 5371,
      "▁సన్న": 5372,
      "కూడా": 5373,
      "చ్చట": 5374,
      "na": 5375,
      "చారాన్ని": 5376,
      "కుండ": 5377,
      "ించెను.": 5378,
      "▁నాయకుడు": 5379,
      "3.": 5380,
      "ine": 5381,
      "▁దివ్య": 5382,
      "నేషనల్": 5383,
      "▁జగన్మో": 5384,
      "▁సీబీఐ": 5385,
      "▁తెలుసు.": 5386,
      "▁చేసింది": 5387,
      "▁your": 5388,
      "▁కట్": 5389,
      "తున్నాడు.": 5390,
      "▁ఫిల్": 5391,
      "▁వేర్": 5392,
      "దుగా": 5393,
      "నక": 5394,
      "▁||": 5395,
      "▁కుమారుడు": 5396,
      "are": 5397,
      "స్తుండ": 5398,
      "▁సరిగ్గా": 5399,
      "నంత": 5400,
      "▁తుల": 5401,
      "▁పరంగా": 5402,
      "▁ఆన్లైన్": 5403,
      "▁పార్టీల": 5404,
      "▁ట్రైలర్": 5405,
      "▁కామెంట్స్": 5406,
      "కాని": 5407,
      "్రాన్": 5408,
      "▁తీసుకున్నారు.": 5409,
      "▁దశా": 5410,
      "▁చొప్పున": 5411,
      "తాన్ని": 5412,
      "▁'ఆ": 5413,
      "▁వర్గాల": 5414,
      "▁2014": 5415,
      "గ్స్": 5416,
      "▁క్రింది": 5417,
      "):": 5418,
      "▁బాలయ్య": 5419,
      "▁కమిషన్": 5420,
      "▁బాలకృష్ణ": 5421,
      "జయ": 5422,
      "బ్లిక్": 5423,
      "<newline>ఆ": 5424,
      "▁చిక్కు": 5425,
      "▁కళాశాల": 5426,
      "▁మల్": 5427,
      "పోయాయి.": 5428,
      "రణి": 5429,
      "▁కార్యకర్త": 5430,
      "స్తున్నారు": 5431,
      "స్తారని": 5432,
      "▁పేర్కొన్నారు.<newline>": 5433,
      "ంపే": 5434,
      "▁చివరకు": 5435,
      "▁ఆధ్యా": 5436,
      "ించని": 5437,
      "▁బంగారు": 5438,
      "uk": 5439,
      "▁అందుబాటులోకి": 5440,
      "ht": 5441,
      "ించాయి.": 5442,
      "▁ప్రపంచంలో": 5443,
      "▁పడిన": 5444,
      "▁హౌస్": 5445,
      "విన": 5446,
      "▁బృంద": 5447,
      "▁భక్తులు": 5448,
      "రు.<newline>": 5449,
      "▁St": 5450,
      "▁వద్దకు": 5451,
      "ంటున్నారు": 5452,
      "▁దృష్టిలో": 5453,
      "టం,": 5454,
      "▁ఇదిలా": 5455,
      "▁డు": 5456,
      "▁దుకా": 5457,
      "▁భేటీ": 5458,
      "▁చేయి": 5459,
      "▁రీసె": 5460,
      "▁సాధి": 5461,
      "▁వేస": 5462,
      "పని": 5463,
      "పుల": 5464,
      "వారిని": 5465,
      "ma": 5466,
      "▁70": 5467,
      "▁ఆదాయం": 5468,
      "▁మంచ": 5469,
      "▁సమాన": 5470,
      "శ్మీర్": 5471,
      "▁అధికంగా": 5472,
      "▁పరిశోధ": 5473,
      "మౌళి": 5474,
      "▁అనుగుణంగా": 5475,
      "▁త్యా": 5476,
      "▁వహి": 5477,
      "▁తత్": 5478,
      "▁పంజాబ్": 5479,
      "▁చెరువు": 5480,
      "▁ప్రభుత్వాన్ని": 5481,
      "▁ప్రకటనలు": 5482,
      "ార్గెట్": 5483,
      "తాయని": 5484,
      "▁అనగా": 5485,
      "▁వేధి": 5486,
      "▁ఇద్దరి": 5487,
      "ోగ్ర": 5488,
      "▁తక్కువగా": 5489,
      "తుకు": 5490,
      "టప్పుడు": 5491,
      "▁వర్షం": 5492,
      "స్తే,": 5493,
      "▁బ్రాండ్": 5494,
      "కైనా": 5495,
      "▁నిరోధ": 5496,
      "▁సౌకర్య": 5497,
      "▁అక్కడే": 5498,
      "▁కత్తి": 5499,
      "కానికి": 5500,
      "్రిప్": 5501,
      "భావం": 5502,
      "బల్": 5503,
      "వచ": 5504,
      "్యూటర్": 5505,
      "▁అయ్యింది.": 5506,
      "▁పర్యవే": 5507,
      "▁చేస్తున్నారని": 5508,
      "▁పట్టించుకో": 5509,
      "▁పెట్టే": 5510,
      "▁ఆధారపడి": 5511,
      "▁గమనార్": 5512,
      "▁వలె": 5513,
      "▁మంచు": 5514,
      "ైతే": 5515,
      "▁వుంది.": 5516,
      "▁జీవన": 5517,
      "▁పరిష్కారం": 5518,
      "బలి": 5519,
      "▁నని": 5520,
      "▁దర్శకు": 5521,
      "▁జడ్": 5522,
      "▁అలీ": 5523,
      "▁రోజులుగా": 5524,
      "▁జనాభా": 5525,
      "▁మండిపడ్డారు.": 5526,
      "సీమ": 5527,
      "▁ఇద": 5528,
      "▁ఎప్పుడ": 5529,
      "పోవడం": 5530,
      "జేశారు.": 5531,
      "▁చేతులు": 5532,
      "▁పరిశీ": 5533,
      "▁స్కా": 5534,
      "▁జూలై": 5535,
      "▁కృష్ణా": 5536,
      ".<newline>అ": 5537,
      "▁పనిచేయ": 5538,
      "▁రమే": 5539,
      "▁కురు": 5540,
      "గొండ": 5541,
      "▁ఉద్యోగం": 5542,
      "▁పాండ": 5543,
      "▁టార్గెట్": 5544,
      "▁వో": 5545,
      "▁చార": 5546,
      "లింగ": 5547,
      "▁తొమ్మి": 5548,
      "▁నీటిని": 5549,
      "గ్న": 5550,
      "▁వెనక్కి": 5551,
      "▁పార్టీలు": 5552,
      "on't": 5553,
      "ైనర్": 5554,
      "▁స్పష్టంగా": 5555,
      "▁బయలుదే": 5556,
      "▁సాంగ్": 5557,
      "వర్తి": 5558,
      "▁ప్రయోజనం": 5559,
      "▁ఏమిట": 5560,
      "ంఠ": 5561,
      "▁యాజ": 5562,
      "ఱకు": 5563,
      "▁కోట": 5564,
      "▁డ్యా": 5565,
      "న్నర": 5566,
      "▁చూసుకు": 5567,
      "కిల్": 5568,
      "▁సిటీ": 5569,
      "▁చెప్పింది.": 5570,
      "▁ఆరోగ్యం": 5571,
      "టిఫికేషన్": 5572,
      "మాత్రం": 5573,
      "▁నిల్వ": 5574,
      "▁యుద్ధం": 5575,
      "▁ఈమె": 5576,
      "గుల్": 5577,
      "క్రియ": 5578,
      "▁గరి": 5579,
      "▁నేషనల్": 5580,
      "▁చింత": 5581,
      "నైనా": 5582,
      "▁ధీ": 5583,
      "ళ్లు,": 5584,
      "▁దేశాల్లో": 5585,
      "18": 5586,
      "ందీ": 5587,
      "▁స్క్రీన్": 5588,
      "న్ల": 5589,
      "▁కుట్ర": 5590,
      "రెన్స్": 5591,
      "▁డిజిటల్": 5592,
      "ళ్ళి": 5593,
      "నలి": 5594,
      "▁అనుమా": 5595,
      "▁టీజర్": 5596,
      "డుతున్నారు.": 5597,
      "మొద": 5598,
      "త్వము": 5599,
      "▁నాగార్జున": 5600,
      "ంసా": 5601,
      "▁అమ్ము": 5602,
      "▁స్వీకరించ": 5603,
      "స్ను": 5604,
      "▁మరిన్ని": 5605,
      "▁యాక్": 5606,
      "▁దేవి": 5607,
      "ించాల్సి": 5608,
      "వచ్చును.": 5609,
      "▁చెప్పాడు.": 5610,
      "▁సీతారా": 5611,
      "ృంగ": 5612,
      "▁క్యార": 5613,
      "స్పి": 5614,
      "▁వాటిలో": 5615,
      "క్రో": 5616,
      "భాగ": 5617,
      "qu": 5618,
      "యైన": 5619,
      "▁జరుగుతుంది.": 5620,
      "▁సిద్ధాంత": 5621,
      "▁వందల": 5622,
      "▁ఓపెన్": 5623,
      "వత్": 5624,
      "▁సొంతం": 5625,
      "▁సన్": 5626,
      "రియం": 5627,
      "ala": 5628,
      "▁కంటి": 5629,
      "మైతే": 5630,
      "▁క్రమంలోనే": 5631,
      "▁కండ": 5632,
      "▁నెటిజన్": 5633,
      "▁తదుపరి": 5634,
      "వితే": 5635,
      "మ్.": 5636,
      "▁ప్రొడ": 5637,
      "▁ఆపరేషన్": 5638,
      "▁పరమా": 5639,
      "▁Ch": 5640,
      "▁you": 5641,
      "వాది": 5642,
      "▁తరఫు": 5643,
      "పోర్": 5644,
      "మును,": 5645,
      "▁మెడికల్": 5646,
      "శాలలో": 5647,
      "▁కరీ": 5648,
      "▁మోట": 5649,
      "▁నగదు": 5650,
      "▁pr": 5651,
      "▁విడిచి": 5652,
      "కూడదు.": 5653,
      "▁అయ్యి": 5654,
      "▁&": 5655,
      "నట్లు": 5656,
      "ించారని": 5657,
      "జిల్": 5658,
      "▁మట్టి": 5659,
      "▁Miss": 5660,
      "▁క్రా": 5661,
      "▁గార": 5662,
      "▁కొల": 5663,
      "▁ప్రశ్ని": 5664,
      "▁దీక్ష": 5665,
      "▁విపరీ": 5666,
      "▁వారితో": 5667,
      "▁వర్షాలు": 5668,
      "్వే": 5669,
      "స్తానని": 5670,
      "▁హార్": 5671,
      "▁ఒకరి": 5672,
      "▁సునీ": 5673,
      "▁న్యాయం": 5674,
      "▁వన్డే": 5675,
      "▁ఉండదు.": 5676,
      "▁రామకృష్ణ": 5677,
      "▁వ్యూ": 5678,
      "మంత్ర": 5679,
      "ించేలా": 5680,
      "▁మహిళల": 5681,
      "▁an": 5682,
      "▁ఫర్": 5683,
      "ర్చ్": 5684,
      "▁పోలీసుల": 5685,
      "ంతం": 5686,
      "▁ఎలి": 5687,
      "▁సర్కార్": 5688,
      "▁మల్ల": 5689,
      "▁రోజున": 5690,
      "▁రేంజ్": 5691,
      "▁స్వే": 5692,
      "పిల్": 5693,
      "ణ్ణి": 5694,
      "▁కార్పొరేషన్": 5695,
      "▁మరు": 5696,
      "సులో": 5697,
      "▁తరువాత,": 5698,
      "గారు.": 5699,
      "▁ఎదురుచూ": 5700,
      "▁నేర": 5701,
      "▁భారతీ": 5702,
      "▁ఎస్పీ": 5703,
      "▁నవ్వు": 5704,
      "▁సభ్యుల": 5705,
      "▁కిలోమీటర్ల": 5706,
      "▁2,": 5707,
      "ome": 5708,
      "▁పోరాట": 5709,
      "▁ధాన్": 5710,
      "మిని": 5711,
      "▁స్వాధీనం": 5712,
      "▁వీటిలో": 5713,
      "oli": 5714,
      "▁ధర్": 5715,
      "▁ప్రైవేటు": 5716,
      "▁ఉష్ణోగ్ర": 5717,
      "మునఁ": 5718,
      "▁భవన": 5719,
      "▁ఉంటా": 5720,
      "▁పెట్టారు.": 5721,
      "నుంది.<newline>": 5722,
      "తూనే": 5723,
      "త్వాన్ని": 5724,
      "▁ఇద్దరూ": 5725,
      "▁Don't": 5726,
      "▁పవిత్ర": 5727,
      "▁ఆధ్యాత్మిక": 5728,
      "▁సగ": 5729,
      "యుల": 5730,
      "▁బ్యాటింగ్": 5731,
      "మయిన": 5732,
      "▁పడుతున్న": 5733,
      "ere": 5734,
      "▁వెలు": 5735,
      "▁అసో": 5736,
      "వంతం": 5737,
      "▁అనుకూల": 5738,
      "▁రోజుకు": 5739,
      "ుడు,": 5740,
      "▁అనుమత": 5741,
      "జాన్": 5742,
      "▁పిల్లలకు": 5743,
      "aw": 5744,
      "టిన": 5745,
      "వచ్చు,": 5746,
      "▁స్థిర": 5747,
      "పట్ట": 5748,
      "▁లేవు.": 5749,
      "▁చేస్తున్నట్లు": 5750,
      "▁దిశ,": 5751,
      "▁ఆదేశించారు.": 5752,
      "▁ఓడి": 5753,
      "▁విషా": 5754,
      "▁కొంచెం": 5755,
      "▁చెప్పడం": 5756,
      "స్టా": 5757,
      "లికా": 5758,
      "▁రాఘ": 5759,
      "▁అనుబంధ": 5760,
      "▁నగర్": 5761,
      "స్పద": 5762,
      "▁Miss!<newline>-": 5763,
      "▁బ్యూటీ": 5764,
      "▁స్పందన": 5765,
      "భద్ర": 5766,
      "▁సెన్": 5767,
      "▁ప్రొఫె": 5768,
      "భో": 5769,
      "నా?": 5770,
      "ష్టు": 5771,
      "▁విటమి": 5772,
      "నంలో": 5773,
      "త్,": 5774,
      "వాళ్లు": 5775,
      "▁ధన్య": 5776,
      "▁చైతన్య": 5777,
      "కర్మ": 5778,
      "▁మణి": 5779,
      "▁ప్రతిపాదన": 5780,
      "స్తోన్న": 5781,
      "▁లక్ష్యంగా": 5782,
      "▁కూతురు": 5783,
      "మయ్యే": 5784,
      "▁సాక్షి": 5785,
      "▁పరుగుల": 5786,
      "▁దక్షిణా": 5787,
      "పణ": 5788,
      "▁చుట్టు": 5789,
      "▁ఐపీఎల్": 5790,
      "శై": 5791,
      "ంటారు": 5792,
      "▁ప్రకటించిన": 5793,
      "▁వివాద": 5794,
      "ధ్యం": 5795,
      "▁విభజన": 5796,
      "ly": 5797,
      "▁అంతేకాకుండా": 5798,
      "▁ఎడి": 5799,
      "▁తిరి": 5800,
      "ప్య": 5801,
      "▁శాశ్వ": 5802,
      "గార": 5803,
      "▁మాస్టర్": 5804,
      "▁ప్రాంతం": 5805,
      "సుక": 5806,
      "▁చేపట్టారు.": 5807,
      "▁విడుదలైన": 5808,
      "▁బృందం": 5809,
      "la": 5810,
      "▁పల్లె": 5811,
      "▁తేజ": 5812,
      "▁In": 5813,
      "▁కాంట్రా": 5814,
      "▁చెక్": 5815,
      "▁అన్నది": 5816,
      "గతం": 5817,
      "▁ర్య": 5818,
      "చ్చె": 5819,
      "డౌన్": 5820,
      "▁వస్తాయి.": 5821,
      "▁నమ్ము": 5822,
      "▁విత్త": 5823,
      "▁తెలియని": 5824,
      "▁తయార": 5825,
      "ంచె": 5826,
      "▁రవీ": 5827,
      "▁కౌన్సి": 5828,
      "▁ఎనిమిది": 5829,
      "▁నెరవే": 5830,
      "▁నిలిపి": 5831,
      "మవుతుంది.": 5832,
      "▁ఢీ": 5833,
      "▁అమిత్": 5834,
      "▁ఎకర": 5835,
      "▁నిర్ధార": 5836,
      "▁2018": 5837,
      "ports": 5838,
      "▁ఆవేదన": 5839,
      "▁ఉద్యమ": 5840,
      "▁ప్రజాస్వా": 5841,
      "▁తలె": 5842,
      "తీరు": 5843,
      "▁ప్రారంభించ": 5844,
      "▁ఒక్కసారిగా": 5845,
      "▁కల్యాణ్": 5846,
      "చారి": 5847,
      "▁బీసీ": 5848,
      "ికొ": 5849,
      "వేషన్": 5850,
      "▁అప్రమ": 5851,
      "▁ఉంద": 5852,
      "▁సాగి": 5853,
      "esh": 5854,
      "స్థాయిలో": 5855,
      "▁with": 5856,
      "▁ప్రకారం,": 5857,
      "తుందో": 5858,
      "బ్ల": 5859,
      "▁దూరంలో": 5860,
      "వచ్చి": 5861,
      "▁పరిశోధన": 5862,
      "విక": 5863,
      "▁నటన": 5864,
      "విక్ర": 5865,
      "▁నలుగురు": 5866,
      "స్కు": 5867,
      "▁వదిలే": 5868,
      "▁సహకార": 5869,
      "▁నోటిఫికేషన్": 5870,
      "▁చోట్ల": 5871,
      "▁వెళ్లా": 5872,
      "▁వాతావరణం": 5873,
      "▁అదుపులోకి": 5874,
      "||": 5875,
      "▁at": 5876,
      "▁జరుగుతోంది.": 5877,
      "▁ఈయన": 5878,
      "కథ": 5879,
      "ినట్లు": 5880,
      "▁గుడి": 5881,
      "▁ఇంటర్నేషనల్": 5882,
      "▁సమీపంలో": 5883,
      "15": 5884,
      "▁చూసు": 5885,
      "కోవచ్చు.": 5886,
      "▁గుర్తించ": 5887,
      "▁మండలంలోని": 5888,
      "▁జనం": 5889,
      "▁పిలుపుని": 5890,
      "టెక్": 5891,
      "▁పార్లమెంట్": 5892,
      "క.": 5893,
      "▁మోడల్": 5894,
      "▁నటిస్తున్న": 5895,
      "▁నొప్పి": 5896,
      "▁సంతోషంగా": 5897,
      "చేశారు.": 5898,
      "▁పడింది.": 5899,
      "▁ట్రాఫిక్": 5900,
      "దార": 5901,
      "ట్రా": 5902,
      "▁కప్": 5903,
      "▁తెచ్చి": 5904,
      "▁బుక్": 5905,
      "▁పుణ్య": 5906,
      "▁45": 5907,
      "ెట్టి": 5908,
      "▁ఇంటర్నెట్": 5909,
      "▁నృ": 5910,
      "▁ముద్దు": 5911,
      "త్యం": 5912,
      "ali": 5913,
      "▁ఎదుర": 5914,
      "డానిక": 5915,
      "▁ప్రతినిధి": 5916,
      "▁ప్రాధాన్యత": 5917,
      "దను": 5918,
      "వారీ": 5919,
      "▁యాజమాన్": 5920,
      "ట.<newline>": 5921,
      "▁సంపూర్ణ": 5922,
      "▁కుప్ప": 5923,
      "▁షెడ్యూల్": 5924,
      "▁వాటికి": 5925,
      "pp": 5926,
      "ంబి": 5927,
      "జల్": 5928,
      "ర్రా": 5929,
      "ా,": 5930,
      "▁చిత్రీ": 5931,
      "▁డిజైన్": 5932,
      "క్తం": 5933,
      "▁కోలు": 5934,
      "▁వెలి": 5935,
      "▁పోలింగ్": 5936,
      "▁వైఎస్సార్": 5937,
      "4.": 5938,
      "▁అప్డే": 5939,
      "▁ఆమోద": 5940,
      "▁మించి": 5941,
      "▁బార్": 5942,
      "▁ఉత్": 5943,
      "భిన్న": 5944,
      "▁వ్యాప్తి": 5945,
      "▁కిడ్": 5946,
      "▁వెబ్సై": 5947,
      "▁పద్మ": 5948,
      "▁నమూ": 5949,
      "▁రానున్న": 5950,
      "▁అండగా": 5951,
      "▁వ్యాయా": 5952,
      "▁విసి": 5953,
      "లానికి": 5954,
      "▁మెరుగ": 5955,
      "▁పోరాటం": 5956,
      "▁నారా": 5957,
      "సుపు": 5958,
      "ెన్స్": 5959,
      "ధ్వ": 5960,
      "▁స్కూల్": 5961,
      "దేవ": 5962,
      "▁అప్పుడే": 5963,
      "ర్షి": 5964,
      "▁ఏజె": 5965,
      "▁నిర్లక్ష": 5966,
      "త్మకంగా": 5967,
      "తతో": 5968,
      "▁రాజమౌళి": 5969,
      "▁నియోజకవర్గ": 5970,
      "▁ప్రసిద్ధ": 5971,
      "▁మాదిరి": 5972,
      "▁లాంచ్": 5973,
      "▁రాష్ట్రంలోని": 5974,
      "▁నగరంలో": 5975,
      "▁అంచనాలు": 5976,
      "▁తెలుస్తోంది.<newline>": 5977,
      "▁ఉపాధ్యాయ": 5978,
      "▁ఎస్.": 5979,
      "లాన్ని": 5980,
      "▁ధ్యా": 5981,
      "▁నెంబర్": 5982,
      "▁దోష": 5983,
      "తాయి.<newline>": 5984,
      "ితమైన": 5985,
      "వులు,": 5986,
      "▁గురువు": 5987,
      "స్తున్నది.": 5988,
      "▁సర్పంచ": 5989,
      "▁అధ్యక్షు": 5990,
      "▁శ్రమ": 5991,
      "పరమైన": 5992,
      "▁అబ్బ": 5993,
      "చి,": 5994,
      "▁రౌ": 5995,
      "▁ధర్మా": 5996,
      "▁విద్యార్థుల": 5997,
      "▁ఆదేశాలు": 5998,
      "విలో": 5999,
      "▁పరిపాల": 6000,
      "▁ఆగి": 6001,
      "▁వెళ": 6002,
      "ec": 6003,
      "ఁడై": 6004,
      "▁లో,": 6005,
      "▁చతు": 6006,
      "▁యాంటీ": 6007,
      "▁సచివాల": 6008,
      "▁...": 6009,
      "▁ఎల్లప్పుడూ": 6010,
      "శేష": 6011,
      "సేపు": 6012,
      "▁టీ20": 6013,
      "గొట్ట": 6014,
      "▁ఓడ": 6015,
      "నూ,": 6016,
      "▁సరికొత్త": 6017,
      "రంభ": 6018,
      "టలో": 6019,
      "▁సాధన": 6020,
      "▁తీసుకునే": 6021,
      "▁కూరగాయ": 6022,
      "శబ్ద": 6023,
      "▁అప్పట్లో": 6024,
      "వస్థ": 6025,
      "ంటాడు.": 6026,
      "యామ": 6027,
      "టల": 6028,
      "▁ఆలోచి": 6029,
      "▁ఫలితం": 6030,
      "ంబా": 6031,
      "యింట్": 6032,
      "▁గట్టిగా": 6033,
      "▁ప్రార్థ": 6034,
      "▁వర్త": 6035,
      "▁తద్వారా": 6036,
      "rs": 6037,
      "▁పి.": 6038,
      "▁బెంగా": 6039,
      "▁ఉండటంతో": 6040,
      "▁దిశగా": 6041,
      "స్.": 6042,
      "దిష్ట": 6043,
      "▁శంక": 6044,
      "▁పరిధిలోని": 6045,
      "eb": 6046,
      "▁రస": 6047,
      "▁క్లారిటీ": 6048,
      "పైన": 6049,
      "▁సులభంగా": 6050,
      "టాల": 6051,
      "▁చెట్టు": 6052,
      "▁ఫెస్టి": 6053,
      "ద్దరూ": 6054,
      "▁పోస్టర్": 6055,
      "ులై": 6056,
      "▁లక్ష్మ": 6057,
      "ాలంటూ": 6058,
      "డియం": 6059,
      "▁విశ్వవిద్య": 6060,
      "▁ఉప్పు": 6061,
      "▁Al": 6062,
      "▁కీర్తి": 6063,
      "త్తమ": 6064,
      "▁చేయండి.": 6065,
      "లని": 6066,
      "▁గ్రామీ": 6067,
      "▁మాధ": 6068,
      "▁సస్పె": 6069,
      "▁నగరం": 6070,
      "▁సంవత్సరంలో": 6071,
      "▁నిర్మించిన": 6072,
      "40": 6073,
      "ాయింపు": 6074,
      "▁పొంది": 6075,
      "▁శిల్": 6076,
      "▁విక్రయ": 6077,
      "▁కృతజ్ఞ": 6078,
      "▁దారితీ": 6079,
      "▁దేహ": 6080,
      "▁ఎక్కడా": 6081,
      "▁మంత్రులు": 6082,
      "▁తగినంత": 6083,
      "సలు": 6084,
      "▁లవ్": 6085,
      "▁ఒడి": 6086,
      "▁ఇంజనీ": 6087,
      "నన్న": 6088,
      "▁క్రేజ్": 6089,
      "ంద్రియ": 6090,
      "▁నిమ్మ": 6091,
      "17": 6092,
      "ఁద": 6093,
      "▁Sports": 6094,
      "▁ట్రె": 6095,
      "▁సంప": 6096,
      "భయ": 6097,
      "▁వేలు": 6098,
      "▁పరిమ": 6099,
      "జింగ్": 6100,
      "బడే": 6101,
      "▁నచ్చ": 6102,
      "నం.": 6103,
      "▁వర్క్": 6104,
      "▁వ్యవహారం": 6105,
      "▁ఫ్రెండ్": 6106,
      "కప్పుడు": 6107,
      "ధ్": 6108,
      "▁మోస": 6109,
      "▁బిజీగా": 6110,
      "పడ్డా": 6111,
      "▁కొట్టి": 6112,
      "▁సంవత్సరాలు": 6113,
      "▁ప్రకా": 6114,
      "▁నందు": 6115,
      "టిని": 6116,
      "గిలి": 6117,
      "ంచీ": 6118,
      "▁కావ్య": 6119,
      "▁అనుభవం": 6120,
      "వింద్": 6121,
      "▁అని,": 6122,
      "▁సకల": 6123,
      "మిక్": 6124,
      "▁పచ్చ": 6125,
      "▁రాష్ట్రానికి": 6126,
      "▁సంస్కృతి": 6127,
      "▁తుది": 6128,
      "▁ఫైనల్": 6129,
      "గన్": 6130,
      "▁ఉద్యోగాలు": 6131,
      "▁యూనివర్సిటీ": 6132,
      "▁అప్పగ": 6133,
      "ర్మి": 6134,
      "ికీ": 6135,
      "▁అందించిన": 6136,
      "▁రాశ": 6137,
      "▁బ్యానర్": 6138,
      "▁ఆకాశ": 6139,
      "ద్దరి": 6140,
      "▁మిమ్మల్ని": 6141,
      "▁స్పంది": 6142,
      "▁ట్రే": 6143,
      "▁త్రా": 6144,
      "▁మేర": 6145,
      "▁ఉన్నారు.<newline>": 6146,
      "సాప్": 6147,
      "ఫ్రికా": 6148,
      "▁చివరికి": 6149,
      "భివృద్ధి": 6150,
      "▁తెలిసింది.": 6151,
      "ణే": 6152,
      "▁దేశంలోని": 6153,
      "▁ప్రపంచవ్యాప్తంగా": 6154,
      "భ్ర": 6155,
      "ంచరీ": 6156,
      "▁అధికారుల": 6157,
      "▁స్ఫ": 6158,
      "▁ఒంట": 6159,
      "▁సామాన్య": 6160,
      "▁దాటి": 6161,
      "▁యున్న": 6162,
      "▁సరిగా": 6163,
      "▁సంపద": 6164,
      "▁జూనియర్": 6165,
      "▁చర్చలు": 6166,
      "నామ": 6167,
      "▁పాస్": 6168,
      "sh": 6169,
      "ః.": 6170,
      "▁చేయగల": 6171,
      "▁అసి": 6172,
      "▁ఎత్తి": 6173,
      "▁రహస్య": 6174,
      "▁బారిన": 6175,
      "▁గుర్తించారు.": 6176,
      "గుట": 6177,
      "▁సాహ": 6178,
      "▁ఇస్తా": 6179,
      "▁సంకే": 6180,
      "▁మగ": 6181,
      "▁శుభా": 6182,
      "▁వెళు": 6183,
      "ఁడు,": 6184,
      "▁క్రీడ": 6185,
      "మూర్": 6186,
      "▁నివాస": 6187,
      "▁వాల్": 6188,
      "▁పాకిస్తాన్": 6189,
      "▁ప్రస్తావ": 6190,
      "▁బంతు": 6191,
      "▁ఖమ్మ": 6192,
      "ించాల్సిన": 6193,
      "age": 6194,
      "▁జర్నలి": 6195,
      "▁మొదలగు": 6196,
      "▁భద్రత": 6197,
      "▁చార్": 6198,
      "వరకూ": 6199,
      "కారులు": 6200,
      "సాయి": 6201,
      "▁ఏమైనా": 6202,
      "చుకో": 6203,
      "12": 6204,
      "yle": 6205,
      "▁పార్టీని": 6206,
      "చేశ": 6207,
      "▁ఆక్సి": 6208,
      "▁తీసుకెళ్ల": 6209,
      "▁జాగ్రత్తలు": 6210,
      "▁భద్రతా": 6211,
      "▁యొక": 6212,
      "▁సంయు": 6213,
      "య్యాడు.": 6214,
      "▁కోప": 6215,
      "▁ఫ్రీ": 6216,
      "▁అధికారం": 6217,
      "▁సరిపో": 6218,
      "▁ఇన్వ": 6219,
      "▁రహదారి": 6220,
      "▁బ్రేక్": 6221,
      "▁నార్": 6222,
      "▁ప్ల": 6223,
      "▁మీడియాతో": 6224,
      "▁వైయస్": 6225,
      "▁సినిమాకి": 6226,
      "వచ్చని": 6227,
      "▁స్వతంత్ర": 6228,
      "▁90": 6229,
      "స్టిక్": 6230,
      "▁హాస్పి": 6231,
      "▁కద": 6232,
      "▁లేదో": 6233,
      "▁కేంద్రంలో": 6234,
      "▁కార్యక్రమాన్ని": 6235,
      "▁ఫ్రా": 6236,
      "▁చేసుకునే": 6237,
      "▁లకు": 6238,
      "ట్టుకో": 6239,
      "ప్రభు": 6240,
      "బడింది": 6241,
      "▁దాడులు": 6242,
      "-అ": 6243,
      "సిపి": 6244,
      "కరించి": 6245,
      "బ్రి": 6246,
      "▁బలి": 6247,
      "స్తుంది,": 6248,
      "నాద": 6249,
      "▁కలె": 6250,
      "▁శైలి": 6251,
      "శాతం": 6252,
      "క్రెయిన్": 6253,
      "▁గేమ్": 6254,
      "▁లోపల": 6255,
      "▁కోర్సు": 6256,
      "▁ఎండ": 6257,
      "▁ప్రధానంగా": 6258,
      "▁75": 6259,
      "భూతి": 6260,
      "▁సల్": 6261,
      "ేదని": 6262,
      "▁సర్కారు": 6263,
      "▁చెబుతున్న": 6264,
      "▁Lif": 6265,
      "ించలేదు.": 6266,
      "వేర్": 6267,
      "▁పుట్టి": 6268,
      "▁పెరిగింది.": 6269,
      "▁యంగ్": 6270,
      "▁వర్తి": 6271,
      "▁అందుకున్న": 6272,
      "▁వస్తున్నాయి.": 6273,
      "ట్టె": 6274,
      "▁పనిచేసే": 6275,
      "బన్": 6276,
      "▁లేవ": 6277,
      "ధికార": 6278,
      "▁జాతి": 6279,
      "▁ఒక్కొక్క": 6280,
      "▁కాంగ్రె": 6281,
      "▁వేశారు.": 6282,
      "ానాయ": 6283,
      "దీప్": 6284,
      "పాన్ని": 6285,
      "▁ఛాన": 6286,
      "ించుకొని": 6287,
      "▁కర్నూ": 6288,
      "▁లేదు,": 6289,
      "లక్ష్మి": 6290,
      "రాయ": 6291,
      "▁ఉన్నాడు.": 6292,
      "▁ఆయనను": 6293,
      "ast": 6294,
      "డితో": 6295,
      "▁రిటై": 6296,
      "▁కాలనీ": 6297,
      "▁పాక్": 6298,
      "▁విషయాలను": 6299,
      "▁కంటెంట్": 6300,
      "▁బి.": 6301,
      "లిత": 6302,
      "▁కలుపు": 6303,
      "తిన్": 6304,
      "▁వెల": 6305,
      "▁కాంబినేషన్": 6306,
      "మంటే": 6307,
      "▁జిల్లాల్లో": 6308,
      "అయితే": 6309,
      "మతులు": 6310,
      "▁కార్యకర్తలు": 6311,
      "నాలను": 6312,
      "ite": 6313,
      "▁ఇష్టం": 6314,
      "ధిప": 6315,
      "▁ఫోర్": 6316,
      "▁విచిత్ర": 6317,
      "▁ఆదు": 6318,
      "▁మనము": 6319,
      "▁సత్యనారాయణ": 6320,
      "▁కచ్చితంగా": 6321,
      "▁తెలుసుకో": 6322,
      "ిల": 6323,
      "గాక": 6324,
      "edd": 6325,
      "ఖరి": 6326,
      "ంనగర్": 6327,
      "ంటారు.<newline>": 6328,
      "▁పెరుగుతున్న": 6329,
      "ూల": 6330,
      "వుతున్న": 6331,
      "కొక": 6332,
      "పోటు": 6333,
      "▁కుటుంబానికి": 6334,
      "▁చేయాల్సి": 6335,
      "నమ": 6336,
      "▁ప్రియా": 6337,
      "▁ఇళ్ల": 6338,
      "▁గుంటూరు": 6339,
      "▁సెక్స్": 6340,
      "▁సిరి": 6341,
      "▁అనుకో": 6342,
      "▁ఆశ్రయ": 6343,
      "స్తోంది": 6344,
      "▁దృష్టికి": 6345,
      "▁కథా": 6346,
      "abad": 6347,
      "▁4.": 6348,
      "ం'": 6349,
      "▁తాగు": 6350,
      "▁వరంగల్": 6351,
      "▁పలిక": 6352,
      "▁క్రై": 6353,
      "▁క్లిక్": 6354,
      "▁సంబ": 6355,
      "ములతో": 6356,
      "తారు": 6357,
      "▁కంపెనీలు": 6358,
      "▁విరుద్ధ": 6359,
      "▁వాట్సాప్": 6360,
      "▁గూర్చి": 6361,
      "▁టెస్ట్": 6362,
      "స్థానం": 6363,
      "▁అందించే": 6364,
      "▁నౌ": 6365,
      "మూరి": 6366,
      "▁అత్యు": 6367,
      "one": 6368,
      "రథ": 6369,
      "డి,": 6370,
      "▁స్టై": 6371,
      "▁కార్యాలయం": 6372,
      "టూ": 6373,
      ",5": 6374,
      "▁సద్": 6375,
      "▁ఫెస్టివల్": 6376,
      "▁నవీ": 6377,
      "▁వేసు": 6378,
      "▁సైని": 6379,
      "60": 6380,
      "▁సెంచరీ": 6381,
      "దారుల": 6382,
      "▁సాధ్యం": 6383,
      "వార్": 6384,
      "▁ప్రమాదంలో": 6385,
      "ందట.": 6386,
      "▁చిత్రాలు": 6387,
      "▁నమ్మకం": 6388,
      "▁ట్రంప్": 6389,
      "▁చేరిన": 6390,
      "ాలయం": 6391,
      "లుత": 6392,
      "▁ప్రథ": 6393,
      "▁కోరి": 6394,
      "ind": 6395,
      "▁నొక్క": 6396,
      "▁ఖర": 6397,
      "▁పద్ధతి": 6398,
      "▁కన్నడ": 6399,
      "▁తరఫున": 6400,
      "▁పేజీ": 6401,
      "▁అందించారు.": 6402,
      "▁దళిత": 6403,
      "▁<newline>": 6404,
      "ందిగా": 6405,
      "▁సమయ": 6406,
      "▁తాత్": 6407,
      "▁ఓటమి": 6408,
      "పల": 6409,
      "శీల": 6410,
      "▁యందు": 6411,
      "పిరి": 6412,
      "▁తమ్ము": 6413,
      "▁అధ్యయనం": 6414,
      "బిన": 6415,
      "సిని": 6416,
      "దృ": 6417,
      "టుగా": 6418,
      "▁దినోత్స": 6419,
      "▁కాంతి": 6420,
      "▁వాన": 6421,
      "ార్థం": 6422,
      "▁పాల్గొన": 6423,
      "▁ద్రవ్య": 6424,
      "శ్రామిక": 6425,
      "▁స్వచ్ఛ": 6426,
      "▁అధ్యక్షులు": 6427,
      "ట్లలో": 6428,
      "నాలు,": 6429,
      "▁నిర్దిష్ట": 6430,
      "▁మూసి": 6431,
      "▁రాష్ట్రపతి": 6432,
      "▁డిస్": 6433,
      "▁ఘా": 6434,
      "▁వికెట్లు": 6435,
      "▁చోట": 6436,
      "ించుకున్నారు.": 6437,
      "▁చెలరే": 6438,
      "▁కడప": 6439,
      "తామని": 6440,
      "కేజీ": 6441,
      "▁198": 6442,
      "▁రిజిస్ట్ర": 6443,
      "మరి": 6444,
      "▁టోర్": 6445,
      "estyle": 6446,
      "▁సురేష్": 6447,
      "జ్ర": 6448,
      "▁తృ": 6449,
      "్యాణ": 6450,
      "క్కర్": 6451,
      "▁వాస్తవానికి": 6452,
      "▁దొరక": 6453,
      "▁నీళ్లు": 6454,
      "మింగ్": 6455,
      "మిన": 6456,
      "▁జస్టి": 6457,
      "▁పెరిగిన": 6458,
      "ac": 6459,
      "▁మీటర్ల": 6460,
      "▁కలక": 6461,
      "▁ఎదుర్": 6462,
      "▁ఫీజు": 6463,
      "▁కాని,": 6464,
      "▁విఫల": 6465,
      "జిత్": 6466,
      "ెన్": 6467,
      "▁బదు": 6468,
      "▁వచ్చినా": 6469,
      "▁అవత": 6470,
      "▁భోజనం": 6471,
      "▁it": 6472,
      "స్తుంటే": 6473,
      "▁మేకర్": 6474,
      "▁నిరాశ": 6475,
      "▁సంక్రాంతి": 6476,
      "ంకట": 6477,
      "▁మహమ్మారి": 6478,
      "▁గానీ": 6479,
      "▁స్థాప": 6480,
      "▁కస్టమర్": 6481,
      "కృష్": 6482,
      "నిర్": 6483,
      "నున్నారు.<newline>": 6484,
      "రులకు": 6485,
      "▁వాటర్": 6486,
      "పైకి": 6487,
      "మేక్": 6488,
      "▁స్థితి": 6489,
      "▁Lifestyle": 6490,
      "▁li": 6491,
      "▁రమ": 6492,
      "▁బలంగా": 6493,
      "ంటోంది.": 6494,
      "▁ఉద్యోగులు": 6495,
      "▁వంత": 6496,
      "▁గై": 6497,
      "?\"": 6498,
      "ముచే": 6499,
      "▁అధికారులకు": 6500,
      "క్షో": 6501,
      "out": 6502,
      "▁మ్యూజిక్": 6503,
      "▁చేసా": 6504,
      "సిస్": 6505,
      "▁తెరి": 6506,
      "▁ఎలక్ట్రిక్": 6507,
      "-20": 6508,
      "▁లోనే": 6509,
      "▁పసి": 6510,
      "▁పసుపు": 6511,
      "లన్నీ": 6512,
      "▁సగం": 6513,
      "▁తొలగించ": 6514,
      "ions": 6515,
      "▁భాషా": 6516,
      "▁ఎం.": 6517,
      "▁ఈశ్వ": 6518,
      "▁నిజమైన": 6519,
      "▁ఈనెల": 6520,
      "▁తోడు": 6521,
      "క్ష్మ": 6522,
      "▁లబ్ధి": 6523,
      "▁నిధు": 6524,
      "▁కాన": 6525,
      "▁క్రికె": 6526,
      "క్కిన": 6527,
      "▁వేరియం": 6528,
      "▁ఫ్ర": 6529,
      "శయ": 6530,
      "విన్": 6531,
      "పోర్టు": 6532,
      "▁చేసుకొని": 6533,
      "▁వి.": 6534,
      "క్షన్స్": 6535,
      "▁కార్తీ": 6536,
      "ంజు": 6537,
      "▁యువతి": 6538,
      "▁అవినీతి": 6539,
      "క్రా": 6540,
      "▁ఆకు": 6541,
      "▁ప్రాంతాల": 6542,
      "కుంది.": 6543,
      "▁500": 6544,
      "▁ఉత్తరా": 6545,
      "▁డైలా": 6546,
      "ించుకుని": 6547,
      "▁శృంగ": 6548,
      "▁ఆర్ధిక": 6549,
      "▁బలహీన": 6550,
      "▁ఘనంగా": 6551,
      "ప్రసాద్": 6552,
      "▁విమానా": 6553,
      "▁ఇటీవలే": 6554,
      "లియ": 6555,
      "▁అనారోగ్య": 6556,
      "▁గడ": 6557,
      "▁అంతేకాదు": 6558,
      "▁పర్యావరణ": 6559,
      "▁రాలేదు.": 6560,
      "▁జ్యోతి": 6561,
      "▁సర్పంచ్": 6562,
      "గాలకు": 6563,
      "ain": 6564,
      "▁పెంపు": 6565,
      "▁ముగ": 6566,
      "▁రెగ్య": 6567,
      "చిక": 6568,
      "ద్వా": 6569,
      "▁wh": 6570,
      "ld": 6571,
      "▁బాగానే": 6572,
      "▁మూడే": 6573,
      "▁ప్రశాంత": 6574,
      "▁టు": 6575,
      "▁సతీ": 6576,
      "▁వేచి": 6577,
      "▁కొద్దిగా": 6578,
      "జల": 6579,
      "▁కాలి": 6580,
      "▁పోయిన": 6581,
      "్రోల్": 6582,
      "▁థా": 6583,
      "▁కోసమే": 6584,
      "▁కామెడీ": 6585,
      "▁అనిల్": 6586,
      "▁స్వి": 6587,
      "▁హిందు": 6588,
      "▁అభిప్రాయం": 6589,
      "▁యోగ": 6590,
      "▁నిరుద్యో": 6591,
      "▁స్వల్ప": 6592,
      "▁మెగాస్టార్": 6593,
      "▁రాబోయే": 6594,
      "▁వల్లే": 6595,
      "▁పనికి": 6596,
      "న్నో": 6597,
      "వలెను.": 6598,
      "▁శాస్త్రవేత్త": 6599,
      "▁పాలి": 6600,
      "▁సంభా": 6601,
      "▁(ప్ర": 6602,
      "▁సుబ్బ": 6603,
      "▁దైవ": 6604,
      "▁స్వేచ్ఛ": 6605,
      "తాను": 6606,
      "▁ఏకా": 6607,
      "▁దేవర": 6608,
      "▁గూగుల్": 6609,
      "▁విశేషం.": 6610,
      "▁అసోసి": 6611,
      "ard": 6612,
      "▁he": 6613,
      "సీ,": 6614,
      "▁సందేశ": 6615,
      "-19": 6616,
      "▁రాజ్యసభ": 6617,
      "రింప": 6618,
      "ీస్": 6619,
      "గా..": 6620,
      "తెలంగాణ": 6621,
      "▁దండ": 6622,
      "▁వెర్": 6623,
      "ాలని,": 6624,
      "▁పాల్గొన్న": 6625,
      "▁గ్రామాల్లో": 6626,
      "▁వలస": 6627,
      "ంచింది.": 6628,
      "ులర్": 6629,
      "▁హెడ్": 6630,
      "బెట్ట": 6631,
      "▁వెల్లడించింది.": 6632,
      "ించాడు.<newline>": 6633,
      "▁కార్యక్రమానికి": 6634,
      "▁ఇంగ్లీ": 6635,
      "గర": 6636,
      "వకు": 6637,
      "వళి": 6638,
      "▁శిష్య": 6639,
      "▁అతిపెద్ద": 6640,
      "▁తెలిసిందే.<newline>": 6641,
      "▁అధికారులను": 6642,
      "▁తీసిన": 6643,
      "▁విషయమై": 6644,
      "▁ఢిల్లీలో": 6645,
      "11": 6646,
      "క్రి": 6647,
      "▁కన్నీ": 6648,
      "▁ఛై": 6649,
      "కుంటున్న": 6650,
      "▁not": 6651,
      "▁పారిశ్రామిక": 6652,
      "స్తుండగా": 6653,
      "▁ఫండ్": 6654,
      "చింది.": 6655,
      "▁సంచల": 6656,
      "రస్కరించ": 6657,
      "▁వేసే": 6658,
      "▁సమన్": 6659,
      "▁మారిన": 6660,
      "▁పరిశీలి": 6661,
      "ka": 6662,
      "కొని,": 6663,
      "ani": 6664,
      "▁సెక్షన్": 6665,
      "▁ఉద్యోగుల": 6666,
      "▁డివిజన్": 6667,
      "▁టైమ్": 6668,
      "▁స్టేట్": 6669,
      "▁కమ్యూని": 6670,
      "▁చర్మం": 6671,
      "క్యం": 6672,
      "▁అబ్": 6673,
      "▁ఖరీ": 6674,
      "▁వద": 6675,
      "ara": 6676,
      "▁ఏర్పడిన": 6677,
      "▁Aut": 6678,
      "▁అభ్యర్థులు": 6679,
      "కపోయినా": 6680,
      "▁మొక్కలు": 6681,
      "త్మా": 6682,
      "▁పేర్": 6683,
      "▁దానిపై": 6684,
      "రాబాద్": 6685,
      "▁పొత్తు": 6686,
      "ముడు": 6687,
      "క్కిలి": 6688,
      "▁విశ్లేష": 6689,
      "▁రమేష్": 6690,
      "▁అవుతు": 6691,
      "▁పునర్": 6692,
      "▁నియోజకవర్గంలో": 6693,
      "▁సామర్థ్యం": 6694,
      "▁ఈవెంట్": 6695,
      "▁ఎత్త": 6696,
      "పురుష": 6697,
      "▁పాటి": 6698,
      "▁యూట్యూ": 6699,
      "▁వ్యవహరించ": 6700,
      "సమా": 6701,
      "సరించి": 6702,
      "ప్రాయ": 6703,
      "▁రాకుండా": 6704,
      "▁టన్ను": 6705,
      "▁సీఐ": 6706,
      "▁వ్యాస": 6707,
      "▁నిర్మాణానికి": 6708,
      "రెడ్డి,": 6709,
      "▁మిగిలి": 6710,
      "తాయి": 6711,
      "ాల్సిన": 6712,
      "▁కావలసిన": 6713,
      "ళ్లతో": 6714,
      "▁రీమేక్": 6715,
      "▁కౌంటర్": 6716,
      "▁బ్రాహ్మణ": 6717,
      "▁అటవీ": 6718,
      "▁యువత": 6719,
      "▁మామూ": 6720,
      "▁లేన": 6721,
      "▁పాటలు": 6722,
      "▁సీన్": 6723,
      "భీ": 6724,
      "బినెట్": 6725,
      "iles": 6726,
      "▁ఆరంభ": 6727,
      "ంబరు": 6728,
      "▁ఇక్కడి": 6729,
      "చ్చు.<newline>": 6730,
      "▁ప్రత్యా": 6731,
      "▁కుడి": 6732,
      "యింగ్": 6733,
      "య్యె": 6734,
      "▁పేరి": 6735,
      "కూరు": 6736,
      "▁ప్రజాశక్తి": 6737,
      "▁పనులను": 6738,
      "▁మెరుగైన": 6739,
      "▁చూద్దా": 6740,
      "rom": 6741,
      "▁కిరణ్": 6742,
      "▁రియల్": 6743,
      "▁స్థానికులు": 6744,
      "గల్": 6745,
      "▁ఏంట": 6746,
      "లాస": 6747,
      "▁మెజ": 6748,
      "▁కంప్యూటర్": 6749,
      "▁పలుకు": 6750,
      "▁విరాట్": 6751,
      "▁సదుపాయ": 6752,
      "▁నియామ": 6753,
      "▁జ్ఞాప": 6754,
      "క్టరీ": 6755,
      "మనం": 6756,
      "మాన్ని": 6757,
      "▁తానే": 6758,
      "▁అంశం": 6759,
      "▁రాక": 6760,
      "▁నిర్వాహ": 6761,
      "▁పేర్లు": 6762,
      "ంక్షన్": 6763,
      "జ్,": 6764,
      "▁ఓట్లు": 6765,
      "▁స్కీ": 6766,
      "▁కూలీ": 6767,
      "▁మంచిది.": 6768,
      "▁దిగిన": 6769,
      "సరికి": 6770,
      "▁కేశ": 6771,
      "పాత్ర": 6772,
      "▁పోషి": 6773,
      "లే.": 6774,
      "▁పూజా": 6775,
      "end": 6776,
      "▁వాణిజ్య": 6777,
      "▁పంచుకు": 6778,
      "స్కర్": 6779,
      "▁మూడవ": 6780,
      "▁స్టూ": 6781,
      "త్తర": 6782,
      "▁పరస్ప": 6783,
      "▁తిరుమల": 6784,
      "▁చేరుకున్న": 6785,
      "▁సమాచారాన్ని": 6786,
      "▁సదరు": 6787,
      "▁కలసి": 6788,
      "▁కోటి": 6789,
      "▁డిప్యూటీ": 6790,
      "ollow": 6791,
      "70": 6792,
      "స్ర": 6793,
      "▁ఇవన్నీ": 6794,
      "▁పర్యట": 6795,
      "▁చేసారు.": 6796,
      "▁స్టోరీ": 6797,
      "ార్క్": 6798,
      "▁దేశానికి": 6799,
      "▁పాలసీ": 6800,
      "▁విను": 6801,
      "▁ఉన్నది.": 6802,
      "▁రష్": 6803,
      "లైట్": 6804,
      "పూడి": 6805,
      "▁ముందస్తు": 6806,
      "▁కొరకు": 6807,
      "▁మాట్లాడిన": 6808,
      "▁ఆశి": 6809,
      "స్టార": 6810,
      "కంఠ": 6811,
      ").<newline>": 6812,
      "రాలు,": 6813,
      "చున్నా": 6814,
      "ారంటూ": 6815,
      "▁నిరూప": 6816,
      "▁ఉండేది.": 6817,
      "▁నేతల": 6818,
      "పక్క": 6819,
      "▁హైదరాబాద్లో": 6820,
      "▁సౌంద": 6821,
      "యాల": 6822,
      "్యూరి": 6823,
      "ద్దే": 6824,
      "▁తరచూ": 6825,
      "ముఁ": 6826,
      "నాల్": 6827,
      "▁సాఫ్ట్": 6828,
      "▁నిత్యం": 6829,
      "▁ఎప్పటికప్పుడు": 6830,
      "▁చాలు": 6831,
      "ప్రే": 6832,
      "▁శ్వాస": 6833,
      "▁పాకిస్థాన్": 6834,
      "▁చదవండి.": 6835,
      "▁బౌలింగ్": 6836,
      "తుని": 6837,
      "▁ముర": 6838,
      "▁ట్రాన్స్": 6839,
      "కొనే": 6840,
      "నిని": 6841,
      "▁సమ్మ": 6842,
      "▁దీనిలో": 6843,
      "▁ప్రభుత్వాలు": 6844,
      "eddy": 6845,
      "▁కష్టం": 6846,
      "▁32": 6847,
      "వద": 6848,
      "▁బాహు": 6849,
      "▁ప్రేమి": 6850,
      "▁చేయకుండా": 6851,
      "లేషన్": 6852,
      "▁పరిమిత": 6853,
      "▁జేయు": 6854,
      "▁సెలవు": 6855,
      "▁ఎపిసో": 6856,
      "ST": 6857,
      "▁గతే": 6858,
      "తో,": 6859,
      "▁గొంతు": 6860,
      "▁బయో": 6861,
      "ారెడ్డి,": 6862,
      "▁2017": 6863,
      "▁గీత": 6864,
      "▁చేయాలి": 6865,
      "▁గర్వ": 6866,
      "▁ఒకటి.": 6867,
      "▁ర్యాలీ": 6868,
      "ుఁడు": 6869,
      "ెస్క్": 6870,
      "న్స్,": 6871,
      "▁జాబితాలో": 6872,
      "▁సగటు": 6873,
      "▁తాగ": 6874,
      "▁ఔషధ": 6875,
      "!\\n": 6876,
      "▁అదృ": 6877,
      "▁ఉదాహరణకు,": 6878,
      "▁జ్ఞా": 6879,
      "శాస్త": 6880,
      "▁అంశంపై": 6881,
      "హైదరాబాద్": 6882,
      "▁ధన్యవాద": 6883,
      "▁జస్టిస్": 6884,
      "దరి": 6885,
      "సిఆర్": 6886,
      "▁సహకరించ": 6887,
      "▁మండలి": 6888,
      "16": 6889,
      "దండ": 6890,
      "్యంగా": 6891,
      "ంపల్లి": 6892,
      "▁ప్రారంభించిన": 6893,
      "▁నిర్మించ": 6894,
      "జరీ": 6895,
      "స్సా": 6896,
      "వాళ్ళ": 6897,
      "▁క్షీ": 6898,
      "ఱ్": 6899,
      "ర్షణ": 6900,
      "నా,": 6901,
      "▁కోడ్": 6902,
      "ంబును": 6903,
      "'లో": 6904,
      "ష్టమైన": 6905,
      "▁పనితీరు": 6906,
      "omob": 6907,
      "▁150": 6908,
      "▁ప్రయోజనాలు": 6909,
      "▁క్రమంగా": 6910,
      "▁కానుంది.": 6911,
      "▁వాక్య": 6912,
      "▁చూస్తూ": 6913,
      "▁నేతృ": 6914,
      "derabad": 6915,
      "▁కది": 6916,
      "▁ప్రభావితం": 6917,
      "ంతే": 6918,
      "▁శూ": 6919,
      "సిద్ధి": 6920,
      "ఎస్పీ": 6921,
      "ించండి.": 6922,
      "▁రాణి": 6923,
      "ఖ్": 6924,
      "చక్ర": 6925,
      "ట్ను": 6926,
      "బ్దం": 6927,
      "▁వంటివి": 6928,
      "▁అశో": 6929,
      "▁ధరించ": 6930,
      "▁hrs": 6931,
      "▁అన్నాడు.": 6932,
      "తోంది": 6933,
      "▁తీర్చి": 6934,
      "ంటిని": 6935,
      "▁రాజ్యాంగ": 6936,
      "▁పెంప": 6937,
      "▁తీర్మా": 6938,
      "▁బ్యాటరీ": 6939,
      "త్రిమ": 6940,
      "▁నిర్మాతలు": 6941,
      "▁శరీరంలో": 6942,
      "▁అకౌంట్": 6943,
      "విక్రమ్": 6944,
      "▁లాక్డౌన్": 6945,
      "omobiles": 6946,
      "లాగే": 6947,
      "ేవారు.": 6948,
      "▁లింగ": 6949,
      "▁పార్లమెంటు": 6950,
      "▁కలప": 6951,
      "▁శుభాకాంక్ష": 6952,
      "?\\n": 6953,
      "హం.": 6954,
      "ించవచ్చు.": 6955,
      "మాబాద్": 6956,
      "పోతే": 6957,
      "▁జీర్ణ": 6958,
      "▁ఎవరికి": 6959,
      "▁గ్రామం": 6960,
      "▁హైదరాబాద్,": 6961,
      "▁చక్కగా": 6962,
      "చుకున్న": 6963,
      "▁జేసి": 6964,
      "▁ప్రియు": 6965,
      "▁భౌతిక": 6966,
      "▁వివరాల": 6967,
      "▁కరీంనగర్": 6968,
      "▁Automobiles": 6969,
      "▁విరు": 6970,
      "▁హర్ష": 6971,
      "yderabad": 6972,
      "▁నిలిచ": 6973,
      "కృతి": 6974,
      "▁తూ": 6975,
      "▁5.": 6976,
      "▁కార్మిక": 6977,
      "▁నవల": 6978,
      "▁ప్రదేశ్": 6979,
      "▁సమగ్ర": 6980,
      "▁రాజకీయాల్లో": 6981,
      "నని,": 6982,
      "▁వ్యాపారం": 6983,
      "▁గ్రామీణ": 6984,
      "ase": 6985,
      "▁తెరకెక్కు": 6986,
      "ెల్": 6987,
      "▁ప్రగతి": 6988,
      "▁కోసం,": 6989,
      "▁News:": 6990,
      "కంప": 6991,
      "పింగ్": 6992,
      "▁op": 6993,
      "▁రాణ": 6994,
      "▁గావ": 6995,
      "ించుకోవడం": 6996,
      "▁పాటు,": 6997,
      "▁నిమిషాల": 6998,
      "ie": 6999,
      "▁పనిచేస్తున్న": 7000,
      "▁సమాధాన": 7001,
      "ారన్న": 7002,
      "▁చెడు": 7003,
      "▁వైస్": 7004,
      "▁వారిపై": 7005,
      "▁యాజమాన్యం": 7006,
      "మిడి": 7007,
      "▁క్యాన్సర్": 7008,
      "▁ప్రతిభ": 7009,
      "▁శ్రు": 7010,
      "లోపే": 7011,
      "టీటీ": 7012,
      "▁వాగ్": 7013,
      "కడ": 7014,
      "▁ఆన": 7015,
      "▁మెంట్": 7016,
      "▁పేర్కొన్న": 7017,
      "▁హైదరాబాద్ః": 7018,
      "▁హృద": 7019,
      "▁చంద": 7020,
      "విషయ": 7021,
      "▁అద్భుతంగా": 7022,
      "ేశ్వరరావు": 7023,
      "ail": 7024,
      "▁న్": 7025,
      "▁యజ్ఞ": 7026,
      "▁వ్యవధి": 7027,
      "ాలె": 7028,
      "25": 7029,
      "▁విడ": 7030,
      "కాడ": 7031,
      "ండును": 7032,
      "న్=": 7033,
      "దీర్ఘ": 7034,
      "ించడం,": 7035,
      "▁భగవంతు": 7036,
      "▁ఎవ్వ": 7037,
      "ంటుందని": 7038,
      "▁దిగి": 7039,
      "ల్లంఘ": 7040,
      "▁కంగ": 7041,
      "కుంటూ": 7042,
      "నాకు": 7043,
      "▁జీవితాన్ని": 7044,
      "▁వస్తుందని": 7045,
      "టెస్ట్": 7046,
      "▁భర": 7047,
      "నుడు": 7048,
      "స్తున్నామని": 7049,
      "▁యూట్యూబ్": 7050,
      "▁మూత్ర": 7051,
      "▁ప్రయాణం": 7052,
      "▁ఒంటరి": 7053,
      "▁మర్చి": 7054,
      "▁తలుపు": 7055,
      "▁చూస్తున్న": 7056,
      "▁తొలుత": 7057,
      "▁ముగిసిన": 7058,
      "యగు": 7059,
      "▁నెల్లూరు": 7060,
      "▁కాలా": 7061,
      "▁రవితే": 7062,
      "ించడంలో": 7063,
      "▁సాక్ష": 7064,
      "▁ఉన్నారని": 7065,
      "▁నిలిచింది.": 7066,
      "ost": 7067,
      "\"అ": 7068,
      "ated": 7069,
      "▁అంశాలు": 7070,
      "▁విభాగం": 7071,
      "బడతాయి.": 7072,
      "▁ఎన్నికలకు": 7073,
      "▁కనిపిస్తుంది.": 7074,
      "se": 7075,
      "▁మూర్": 7076,
      "▁మినహ": 7077,
      "▁ప్రోత్సహ": 7078,
      "సి.": 7079,
      "▁ఎమ్మెల్యేలు": 7080,
      "▁ప్రవర్త": 7081,
      "▁కుంభ": 7082,
      "సాని": 7083,
      "▁వ్రాయ": 7084,
      "▁యాంకర్": 7085,
      "▁కాలేదు.": 7086,
      "▁ఇండస్ట్రీలో": 7087,
      "▁నేనే": 7088,
      "▁ప్రెసి": 7089,
      "తులలో": 7090,
      "స్తీ": 7091,
      "▁com": 7092,
      "▁స్పందించారు.": 7093,
      "▁ప్రత్యామ్": 7094,
      "▁తక్షణ": 7095,
      "▁ఉపయోగించి": 7096,
      "▁వాస్తవం": 7097,
      "▁తీర": 7098,
      "▁షాకింగ్": 7099,
      "ook": 7100,
      "నేత": 7101,
      "▁చెప్పాలి.": 7102,
      "▁పదు": 7103,
      "▁మేం": 7104,
      "▁అసంత": 7105,
      "కార్య": 7106,
      "హానికి": 7107,
      "యోగం": 7108,
      "▁un": 7109,
      "▁రకమైన": 7110,
      "స్తుల": 7111,
      "▁మోటార్": 7112,
      "▁వాటా": 7113,
      "టలు": 7114,
      "▁X": 7115,
      "▁రవితేజ": 7116,
      "▁కట్టి": 7117,
      "ంటామని": 7118,
      "▁చరిత్రలో": 7119,
      "▁ఒప్పందం": 7120,
      "han": 7121,
      "▁విభిన్న": 7122,
      "▁ఉక్రెయిన్": 7123,
      "పాజి": 7124,
      "▁ఉండడం": 7125,
      "స్తున్నాను.": 7126,
      "▁by": 7127,
      "-3": 7128,
      "డను": 7129,
      "▁ద్రా": 7130,
      "▁ముడి": 7131,
      "▁కృత్రిమ": 7132,
      "▁బీమా": 7133,
      "ప్స్": 7134,
      "పోతు": 7135,
      "▁మాట్లాడే": 7136,
      "▁సమస్యల": 7137,
      "▁నివా": 7138,
      "▁The": 7139,
      "▁స్వరూప": 7140,
      "▁భావిస్తున్నారు.": 7141,
      "▁తేలిక": 7142,
      "▁రంగంలోకి": 7143,
      "▁అయ్యాయి.": 7144,
      "మారి": 7145,
      "ంట్ర": 7146,
      "స్తాయి.<newline>": 7147,
      "▁కి.": 7148,
      "తాధిక": 7149,
      "సల": 7150,
      "▁ఇది.": 7151,
      "▁తిప్ప": 7152,
      "షింగ్": 7153,
      "దగిన": 7154,
      "ులైన": 7155,
      "▁అప్రమత్త": 7156,
      "ంత్య": 7157,
      "▁విటమిన్": 7158,
      "▁ఉండాలి": 7159,
      "ించును.": 7160,
      "▁భిన్నంగా": 7161,
      "▁విమానం": 7162,
      "▁యత్": 7163,
      "▁దేవత": 7164,
      "వాతి": 7165,
      "వే.": 7166,
      "మవుతున్న": 7167,
      "మృ": 7168,
      "కళ": 7169,
      "మిత్ర": 7170,
      "▁ఇసుక": 7171,
      "▁లేకపోవడం": 7172,
      "ేందర్": 7173,
      "▁;": 7174,
      "▁కొంద": 7175,
      "▁వార్డు": 7176,
      "▁అలవాటు": 7177,
      "రాని": 7178,
      "▁మిస్": 7179,
      "▁ఫేస్బు": 7180,
      "వర్త": 7181,
      "వెన్యూ": 7182,
      "▁6.": 7183,
      "▁సూచనలు": 7184,
      "డనే": 7185,
      "▁పురో": 7186,
      "▁పేపర్": 7187,
      "▁గతేడాది": 7188,
      "▁ఎమో": 7189,
      "ంగ్లా": 7190,
      "▁కేసుల": 7191,
      "▁స్థితిలో": 7192,
      "వడానికి": 7193,
      "▁కప్పు": 7194,
      "▁పెద్దలు": 7195,
      "▁జరిగింది.<newline>": 7196,
      "కుడి": 7197,
      "▁రిజర్వేషన్": 7198,
      "▁కడ": 7199,
      "▁ఇప్ప": 7200,
      "▁లూ": 7201,
      "మెన్": 7202,
      "▁చూశా": 7203,
      "ive": 7204,
      "▁ఉచితంగా": 7205,
      "▁ఎంతగా": 7206,
      "▁అర్హత": 7207,
      "▁హెల్త్": 7208,
      "▁పాలకు": 7209,
      "▁కాయ": 7210,
      "ాయిడ్": 7211,
      "ప్లే": 7212,
      "▁ఎక్": 7213,
      "▁తీసుకుంది.": 7214,
      "▁వరి": 7215,
      "తే.": 7216,
      "ib": 7217,
      "▁లిమి": 7218,
      "ధర్": 7219,
      "సంగ": 7220,
      "▁ఈడీ": 7221,
      "శ్వాస": 7222,
      "▁సమాచార": 7223,
      "▁ఫైర్": 7224,
      "దేవీ": 7225,
      "▁రష్య": 7226,
      "▁కూడా.": 7227,
      "▁గాను": 7228,
      "▁విగ్రహ": 7229,
      "ముక": 7230,
      "▁జవా": 7231,
      "▁యంత్రా": 7232,
      "ంటుంది": 7233,
      "▁సేవలను": 7234,
      "▁వెను": 7235,
      "ల్లోనూ": 7236,
      "నున్నాయి.": 7237,
      "▁ఆస్పత్రికి": 7238,
      "గలు": 7239,
      "▁(C": 7240,
      "▁దేశాలు": 7241,
      "నటు": 7242,
      "▁సత్తా": 7243,
      "▁రెడ్": 7244,
      "▁మందిని": 7245,
      "▁పునరుద్ధ": 7246,
      "▁ఒప్పంద": 7247,
      "▁సందర్భా": 7248,
      "ర్డ్": 7249,
      "▁బహుశా": 7250,
      "జనా": 7251,
      "ఆర్ఆర్": 7252,
      "▁టీచర్": 7253,
      "▁అన్నాడు": 7254,
      "టమే": 7255,
      "▁జ్వ": 7256,
      "▁పోలిస్తే": 7257,
      "▁అశ్": 7258,
      "▁ప్రత్యేకమైన": 7259,
      "▁డిస్క": 7260,
      "▁అడ్డ": 7261,
      "▁సృ": 7262,
      "ాయన్నారు.": 7263,
      "▁బియ్య": 7264,
      "▁నిండి": 7265,
      "▁అవుతోంది.": 7266,
      "ధర": 7267,
      "సంప": 7268,
      "▁ఆపై": 7269,
      "▁ఇర": 7270,
      "▁విమానాశ్ర": 7271,
      "▁అయో": 7272,
      "వ్వి": 7273,
      "▁కనిపిస్తోంది.": 7274,
      "▁చెల్లించ": 7275,
      "▁వస్తోంది.": 7276,
      "▁గజ": 7277,
      "▁కోర్టులో": 7278,
      "▁అడిగిన": 7279,
      "▁కలుగ": 7280,
      "▁అసిస్ట": 7281,
      "క్సీ": 7282,
      "▁టూ": 7283,
      "▁చూచి": 7284,
      "▁గాన": 7285,
      "▁ప్రేక్షకులను": 7286,
      "▁బలం": 7287,
      "▁ఉంటూ": 7288,
      "వాణి": 7289,
      "▁డబుల్": 7290,
      "▁కథానాయ": 7291,
      "▁అయినప్పటికీ": 7292,
      "▁or": 7293,
      "చేందుకు": 7294,
      "▁సమస్యను": 7295,
      "షియా": 7296,
      "▁ప్రసంగ": 7297,
      "▁బెస్ట్": 7298,
      "▁మోక్ష": 7299,
      "▁అలాగే,": 7300,
      "▁తప్పుడు": 7301,
      "▁ఉందని,": 7302,
      "▁వహించ": 7303,
      "▁సమితి": 7304,
      "▁సాధించింది.": 7305,
      "▁తెలియదు.": 7306,
      "ff": 7307,
      "▁దృష్ట": 7308,
      "▁కొని": 7309,
      "▁వెల్లు": 7310,
      "▁మిక్కిలి": 7311,
      "నర్జీ": 7312,
      "▁అన్నారు": 7313,
      "▁శ్రీలంక": 7314,
      "లంగాణా": 7315,
      "▁టెలి": 7316,
      "▁లేదని,": 7317,
      "▁\"ఆ": 7318,
      "ేదు": 7319,
      "▁సిపి": 7320,
      "▁డిపాజి": 7321,
      "▁విజ్ఞప్తి": 7322,
      "బ్యా": 7323,
      "▁శ్రా": 7324,
      "▁సంస్కృత": 7325,
      "▁వేర్వే": 7326,
      "గ్రి": 7327,
      "▁వివరి": 7328,
      "▁మాల": 7329,
      "టికల్": 7330,
      "ించుకునే": 7331,
      "యీ": 7332,
      "▁మనీ": 7333,
      "ర్తి": 7334,
      "▁పాత్రలు": 7335,
      "▁ప్రీమి": 7336,
      "▁గ్యాస్": 7337,
      "<newline>ఈ": 7338,
      "ach": 7339,
      "తారు.<newline>": 7340,
      "▁తహ": 7341,
      "▁సంకల్ప": 7342,
      "▁మొత్తానికి": 7343,
      "▁సేవా": 7344,
      "▁భవిష్యత్తులో": 7345,
      "చ్చా": 7346,
      "వింగ్": 7347,
      "▁చూడాలి.": 7348,
      "కైక": 7349,
      "▁యగు": 7350,
      "దానీ": 7351,
      "▁స్మార్ట్ఫోన్": 7352,
      "▁దగ్గరకు": 7353,
      "▁యూనియన్": 7354,
      "▁[": 7355,
      "▁తుపా": 7356,
      "గడ్డ": 7357,
      "▁పులి": 7358,
      "▁300": 7359,
      "▁are": 7360,
      "▁ఆంక్ష": 7361,
      "▁తప్పనిసరిగా": 7362,
      "దారులకు": 7363,
      "కూడదని": 7364,
      "కర్త": 7365,
      "ర్ధ": 7366,
      "▁రమణ": 7367,
      "▁భరో": 7368,
      "▁నిర్ధారణ": 7369,
      "చుచు": 7370,
      "భారత": 7371,
      "▁నిర్ణయాలు": 7372,
      "▁ఈనాడు": 7373,
      "▁తొమ్మిది": 7374,
      "చై": 7375,
      "వాయ": 7376,
      "నుగు": 7377,
      "▁వాడి": 7378,
      "▁ఉంటుంది,": 7379,
      "▁ఇంతకు": 7380,
      "▁ఆఫీసర్": 7381,
      "▁సిస్టమ్": 7382,
      "▁మెడ": 7383,
      "▁ప్రకటి": 7384,
      "దని,": 7385,
      "ించాడు": 7386,
      "హృ": 7387,
      "▁చర్చి": 7388,
      "▁డెవల": 7389,
      "▁నెట్వర్": 7390,
      "▁మొన్న": 7391,
      "▁నివారణ": 7392,
      "త్తుగా": 7393,
      "▁చేసుకోవాలని": 7394,
      "▁as": 7395,
      "▁చేసుకోవచ్చు.": 7396,
      "▁ఆక్రమ": 7397,
      "▁నిష్": 7398,
      "▁వాద": 7399,
      "▁బౌలర్": 7400,
      "▁కాపాడ": 7401,
      "hy": 7402,
      "క్యు": 7403,
      "▁కవర్": 7404,
      "▁మేనేజర్": 7405,
      "▁లేదంటే": 7406,
      "▁వైసిపి": 7407,
      "▁నాలుగో": 7408,
      "▁భారతదేశంలో": 7409,
      "మొదటి": 7410,
      "▁ఆస్తి": 7411,
      "▁36": 7412,
      "▁జెప్ప": 7413,
      "▁తెలుసుకుందా": 7414,
      "గలుగు": 7415,
      "▁వీరికి": 7416,
      "▁మిషన్": 7417,
      "▁దిగ్గ": 7418,
      "▁ఏర్పడ": 7419,
      "▁కనెక్ట్": 7420,
      "▁వెనక": 7421,
      "ే.": 7422,
      "▁సంక్షో": 7423,
      "ారా?<newline>": 7424,
      "▁సీట్లు": 7425,
      "▁పనిలో": 7426,
      "▁స్టాక్": 7427,
      "▁బాధితు": 7428,
      "▁బస్": 7429,
      "▁లలో": 7430,
      "▁రెవెన్యూ": 7431,
      "▁శం": 7432,
      "▁తీసుకువచ్చ": 7433,
      "▁నన్న": 7434,
      "విగా": 7435,
      "▁కారణాలు": 7436,
      "ave": 7437,
      "▁ఉల్లంఘ": 7438,
      "▁గార్": 7439,
      "▁నటించ": 7440,
      "▁పూజలు": 7441,
      "▁నిందితు": 7442,
      "▁గిరిజన": 7443,
      "▁కణ": 7444,
      "▁అహ": 7445,
      "▁ఆసియా": 7446,
      "▁ప్రతికూల": 7447,
      "▁ఏమాత్రం": 7448,
      "తెలుగు": 7449,
      "▁నామినేషన్": 7450,
      "▁బంతుల్లో": 7451,
      "▁ఎపిసోడ్": 7452,
      "▁(ఆ": 7453,
      "▁:-": 7454,
      "▁నిబంధనలు": 7455,
      "బై": 7456,
      "భక్తి": 7457,
      "▁మమ": 7458,
      "▁శ్యా": 7459,
      "▁అప్డేట్": 7460,
      "తిన": 7461,
      "▁మేయర్": 7462,
      "▁సెక్ర": 7463,
      "▁విశ్రాంతి": 7464,
      "▁నిలదీ": 7465,
      "▁ధైర్య": 7466,
      "▁అనా": 7467,
      "▁ఇట్లు": 7468,
      "ంకార": 7469,
      "▁కథలు": 7470,
      "▁జిల్లాల": 7471,
      "పట్నం": 7472,
      ":<newline>": 7473,
      "▁విపక్ష": 7474,
      "▁యూపీ": 7475,
      "▁యథా": 7476,
      "▁వచ్చింది.<newline>": 7477,
      "వు.<newline>": 7478,
      "▁తరగ": 7479,
      "▁గ్లో": 7480,
      "▁పేరిట": 7481,
      "శం": 7482,
      "ంటున్నారు.<newline>": 7483,
      "స్తున్నాయి.<newline>": 7484,
      "▁అద్దె": 7485,
      "టికీ": 7486,
      "▁శత": 7487,
      "ించిందని": 7488,
      "▁గౌత": 7489,
      "కంలో": 7490,
      "▁పిల్": 7491,
      "▁తెలిపింది.<newline>": 7492,
      "▁లేకపోవడంతో": 7493,
      "▁అభివృద్ధికి": 7494,
      "▁విషయంపై": 7495,
      "▁ఫిల్మ్": 7496,
      "కః": 7497,
      "▁ఉన్నతాధిక": 7498,
      "▁అర్ధం": 7499,
      "▁'ఇ": 7500,
      "▁కార్మికులు": 7501,
      ",8": 7502,
      "▁సరదా": 7503,
      "▁సరసన": 7504,
      "▁అక్కడికి": 7505,
      "మయ్యారు.": 7506,
      "కండి.": 7507,
      "డ్ర": 7508,
      "▁ద్రో": 7509,
      "▁చేసుకోవడం": 7510,
      "▁అత్త": 7511,
      "న్నత": 7512,
      "▁జిల్లాకు": 7513,
      "▁పునరా": 7514,
      "చీన": 7515,
      "▁వింత": 7516,
      "ందుకే": 7517,
      "క్కో": 7518,
      "▁ఐదే": 7519,
      "▁పల్ల": 7520,
      "▁ఉంటాయి.<newline>": 7521,
      "▁ప్రేక్షకులు": 7522,
      "▁పృ": 7523,
      "▁శారీ": 7524,
      "సీబీ": 7525,
      "ములు.": 7526,
      "▁తెలంగాణకు": 7527,
      "▁పరు": 7528,
      "▁సినిమాని": 7529,
      "▁దురద": 7530,
      "▁సైట్": 7531,
      "▁శక్తిని": 7532,
      "▁లేటెస్ట్": 7533,
      "▁గమనార్హం.": 7534,
      "▁భ్ర": 7535,
      "▁ఏళ్లు": 7536,
      "▁కోట్లకు": 7537,
      "▁ఆమ్": 7538,
      "ంపజే": 7539,
      "▁సుర": 7540,
      "▁నిర్వహించే": 7541,
      "▁దర్శన": 7542,
      "▁పబ్లిక్": 7543,
      "▁నానా": 7544,
      "ములందు": 7545,
      "▁2016": 7546,
      "గంట": 7547,
      "▁చెంది": 7548,
      "ari": 7549,
      "▁వచ్చింది": 7550,
      "rad": 7551,
      "కుఁ": 7552,
      "▁బంతి": 7553,
      "▁డెలి": 7554,
      "▁అవే": 7555,
      "▁మంత్రిత్వ": 7556,
      "▁ఆశా": 7557,
      "యాన్": 7558,
      "▁బాల్": 7559,
      "ప్రతిని": 7560,
      "▁ఖాయ": 7561,
      "\".": 7562,
      "తొ": 7563,
      "ళ్లే": 7564,
      "సాఫీ": 7565,
      "▁యువకుడు": 7566,
      "▁రాయల": 7567,
      "▁విభాగంలో": 7568,
      "▁అసోసియేషన్": 7569,
      "న్మెంట్": 7570,
      "▁రకర": 7571,
      "▁అంశాలపై": 7572,
      "▁తప్పి": 7573,
      "వణ": 7574,
      "▁హయా": 7575,
      "▁తెరు": 7576,
      "▁మహబూ": 7577,
      "▁అప్పటికే": 7578,
      "తారని": 7579,
      "▁ఘటనపై": 7580,
      "▁నియోజకవర్గం": 7581,
      "▁నిమిత్తం": 7582,
      "ఫోర్": 7583,
      "▁ఆనందం": 7584,
      "పడుతున్నారు.": 7585,
      "▁that": 7586,
      "బోధ": 7587,
      "▁ప్రశాంత్": 7588,
      "<newline>ఇ": 7589,
      "▁ఆంగ్": 7590,
      "▁సామ్రా": 7591,
      "ేందుకు": 7592,
      "లకి": 7593,
      "విటీ": 7594,
      "▁ఒక్కరూ": 7595,
      "ord": 7596,
      "▁సింగిల్": 7597,
      "▁నివ": 7598,
      "ంగుళ": 7599,
      "్యూరిటీ": 7600,
      "ంచిన": 7601,
      "▁వస్తువు": 7602,
      "▁అమెరికాలో": 7603,
      "▁దేవుని": 7604,
      "▁ఎంజ": 7605,
      "▁వర్గం": 7606,
      "బ్బి": 7607,
      "▁దశాబ్ద": 7608,
      "లుకు": 7609,
      "▁ఏవ": 7610,
      "▁33": 7611,
      "▁జాన్": 7612,
      "▁ఆకలి": 7613,
      "▁తాత్కాలిక": 7614,
      "▁రథ": 7615,
      "▁అడగ": 7616,
      "ర్రీ": 7617,
      "▁ధాన్యం": 7618,
      "సనం": 7619,
      "▁(A": 7620,
      "▁హింస": 7621,
      "▁గురైన": 7622,
      "▁లావా": 7623,
      "భం": 7624,
      "ాయన": 7625,
      "▁ఉన్నట్టు": 7626,
      "రేటర్": 7627,
      "స్కృతి": 7628,
      "ంగో": 7629,
      "▁కుండ": 7630,
      "▁ఇట్టి": 7631,
      "▁రంగం": 7632,
      "▁కాంగ్రెసు": 7633,
      "▁ఇంట్": 7634,
      "▁సంరక్షణ": 7635,
      "▁మొత్తంలో": 7636,
      "జను": 7637,
      "భై": 7638,
      "▁మొట్ట": 7639,
      "▁అనుమానం": 7640,
      "▁వెర్షన్": 7641,
      "క్షు": 7642,
      "ములగు": 7643,
      "▁సీజన్లో": 7644,
      "▁శుభాకాంక్షలు": 7645,
      "▁చివర": 7646,
      "ong": 7647,
      "▁ముక్కు": 7648,
      "▁చాటు": 7649,
      "▁మందులు": 7650,
      "కని": 7651,
      "▁కనీస": 7652,
      "ాల్సి": 7653,
      "▁సర్టిఫిక": 7654,
      "తఁడు": 7655,
      "పించారు.": 7656,
      "▁వ్యూహ": 7657,
      "దలకు": 7658,
      "క్తా": 7659,
      "▁వేణు": 7660,
      "▁గల్": 7661,
      "ంతోనే": 7662,
      "వర్స్": 7663,
      "▁ఆర్డర్": 7664,
      "ను;": 7665,
      "▁పరిష": 7666,
      "▁గరిష్ట": 7667,
      "ాయక": 7668,
      "▁మరల": 7669,
      "▁వివాదం": 7670,
      "▁పంపు": 7671,
      "నియ": 7672,
      "ust": 7673,
      "▁అదనంగా": 7674,
      "▁భవిష్యత్": 7675,
      "రన్": 7676,
      "▁ధృ": 7677,
      "▁రెండి": 7678,
      "▁కొనసాగుతున్న": 7679,
      "స్థాప": 7680,
      "▁సందడి": 7681,
      "▁సంబంధాలు": 7682,
      "▁మారింది.<newline>": 7683,
      "సౌ": 7684,
      "▁అవా": 7685,
      "▁అవుట్": 7686,
      "▁నోటీసులు": 7687,
      "▁ప్రెస్": 7688,
      "▁తెలుస్తుంది.": 7689,
      "దా?": 7690,
      "▁సీసీ": 7691,
      "▁శోభ": 7692,
      "▁నగు": 7693,
      "క్కీ": 7694,
      "▁బ్యూ": 7695,
      "త్రిక": 7696,
      "బాదు": 7697,
      "▁ఇంకో": 7698,
      "మంటూ": 7699,
      "▁లోక్స": 7700,
      "▁తర్వాత,": 7701,
      "భూమి": 7702,
      "▁ఇష్టపడ": 7703,
      "▁హెచ్చరించారు.": 7704,
      "▁గుజరాత్లో": 7705,
      "రులను": 7706,
      "ించిరి.": 7707,
      "▁An": 7708,
      "▁వెళ్లారు.": 7709,
      "▁ఎవరికీ": 7710,
      "▁ఊపిరి": 7711,
      "▁సీరియస్": 7712,
      "▁కోచ్": 7713,
      "సైడ్": 7714,
      "▁రిజిస్ట్రేషన్": 7715,
      "ల్లర్": 7716,
      "జీలు": 7717,
      "▁ఉద్యమం": 7718,
      "ich": 7719,
      "▁నందమూరి": 7720,
      "▁దారుణంగా": 7721,
      "ందంటే": 7722,
      "బ్బా": 7723,
      "▁స్నేహ": 7724,
      "▁విజయాన్ని": 7725,
      "▁ప్రత్యర్థ": 7726,
      "ime": 7727,
      "▁మార్గదర్శ": 7728,
      "▁ఆహ్వానించ": 7729,
      "పోవు": 7730,
      "నో,": 7731,
      "తికే": 7732,
      "▁ఏకైక": 7733,
      "పాడు": 7734,
      "మునుండి": 7735,
      "వుతుంది.": 7736,
      "▁దాకా": 7737,
      "▁విస్తృత": 7738,
      "▁చక్కెర": 7739,
      "14": 7740,
      "▁శిఖ": 7741,
      "▁కాపాడు": 7742,
      "▁మున": 7743,
      "ించుటకు": 7744,
      "శిష్ట": 7745,
      "▁రామచంద్ర": 7746,
      "▁ప్రతినిధులు": 7747,
      "22": 7748,
      "▁నివస": 7749,
      "▁నాటక": 7750,
      "▁లేడీ": 7751,
      "▁పెట్టుకుని": 7752,
      "▁నిరంతరం": 7753,
      "▁భవన్": 7754,
      "▁జియో": 7755,
      "▁సెకండ్": 7756,
      "ంట్రల్": 7757,
      "దానం": 7758,
      "▁దన": 7759,
      "▁టీటీ": 7760,
      "▁అప్లి": 7761,
      "త.": 7762,
      "▁లగు": 7763,
      "▁అందువలన,": 7764,
      "▁భరోసా": 7765,
      "ు..": 7766,
      "▁రోల్": 7767,
      "▁సీఈ": 7768,
      "▁విషయానికి": 7769,
      "▁లక్ష్యం": 7770,
      "ru": 7771,
      "చర": 7772,
      "డలి": 7773,
      "సొ": 7774,
      "▁దోహ": 7775,
      "ణులు": 7776,
      "▁కరి": 7777,
      "▁నెలకొంది.": 7778,
      "▁మరికొన్ని": 7779,
      "్రీట్": 7780,
      "▁నెట్టి": 7781,
      "▁తేజ్": 7782,
      "పోయింది.<newline>": 7783,
      "▁దేవుడు": 7784,
      "ah": 7785,
      "▁పంచు": 7786,
      "లోడ్": 7787,
      "▁తెలంగాణా": 7788,
      "ram": 7789,
      "▁అడిగి": 7790,
      "▁ప్రణ": 7791,
      "డియ": 7792,
      "▁చెక్క": 7793,
      "ించకుండా": 7794,
      "▁ప్రకార": 7795,
      "తే,": 7796,
      "▁చెల్లింపు": 7797,
      "8.": 7798,
      "దై": 7799,
      "▁జి.": 7800,
      "ద్వి": 7801,
      "▁సున్ని": 7802,
      "▁విద్యార్": 7803,
      "ఱ్ఱ": 7804,
      "▁నెమ్మ": 7805,
      "▁ch": 7806,
      "▁వైద్యం": 7807,
      "▁జరిగితే": 7808,
      "చెప్ప": 7809,
      "▁మలయా": 7810,
      "▁పరిణామ": 7811,
      "▁నిషేధ": 7812,
      "▁మోహ": 7813,
      "▁బయటికి": 7814,
      "s,": 7815,
      "్ర్": 7816,
      "▁చేరింది.": 7817,
      "▁యజమాని": 7818,
      "▁రష్యన్": 7819,
      "▁సినిమాలకు": 7820,
      "సహ": 7821,
      "▁సూక్ష్మ": 7822,
      "▁ఆలస్య": 7823,
      "▁రూపొందించిన": 7824,
      "▁అధికారికంగా": 7825,
      "ood": 7826,
      "▁గాని,": 7827,
      "▁ఘట": 7828,
      "7.": 7829,
      "పాడు.": 7830,
      "▁అవుతుందని": 7831,
      "▁మృదు": 7832,
      "ల,": 7833,
      "▁అనుసం": 7834,
      "▁జరిగిందని": 7835,
      "▁from": 7836,
      "▁అంకి": 7837,
      "▁మీదుగా": 7838,
      "▁ప్రారంభి": 7839,
      "ంతయు": 7840,
      "డుగ": 7841,
      "▁శివా": 7842,
      "▁ఓటీటీ": 7843,
      "▁క్రొ": 7844,
      "▁వెలుగులోకి": 7845,
      "హిక": 7846,
      "▁నోటి": 7847,
      "▁అంశాలను": 7848,
      "▁శతాబ్ద": 7849,
      "▁దేవరకొండ": 7850,
      "ech": 7851,
      "▁శక్": 7852,
      "▁శ్రీకా": 7853,
      "▁సమాచారం.<newline>": 7854,
      "▁గుర్తించి": 7855,
      "▁సవాల్": 7856,
      "▁ఇస్తే": 7857,
      "గూడె": 7858,
      "రం,": 7859,
      "▁గోడ": 7860,
      "▁యొ": 7861,
      "▁సిఫార్": 7862,
      "▁విశ్వస": 7863,
      "▁ఇన్నింగ్స్": 7864,
      "రణం": 7865,
      "▁ఖమ్మం": 7866,
      "▁గ్రీ": 7867,
      "పురా": 7868,
      "▁తీసే": 7869,
      "▁ఆసీ": 7870,
      "వాదం": 7871,
      "▁జెండా": 7872,
      "▁సమీపంలోని": 7873,
      "▁జరుగ": 7874,
      "గంధ": 7875,
      "▁సవ": 7876,
      "▁తీర్చిది": 7877,
      "కెక్కి": 7878,
      "▁గంగా": 7879,
      "స్తుంటారు.": 7880,
      "▁కానిస్టే": 7881,
      "బాయ్": 7882,
      "నుకు": 7883,
      "▁సుదీర్ఘ": 7884,
      "▁తెరకెక్కిన": 7885,
      "▁లోక్సభ": 7886,
      "ల్లే": 7887,
      "▁ఎది": 7888,
      "▁షర్మి": 7889,
      "▁ఫోటోలు": 7890,
      "▁పెట్రోల్": 7891,
      "▁విడా": 7892,
      "టర్స్": 7893,
      "సెప్": 7894,
      "▁దెబ్బతి": 7895,
      "▁బ్రహ్మా": 7896,
      "మ్యం": 7897,
      "▁ఉనికి": 7898,
      "▁తనపై": 7899,
      "▁Ind": 7900,
      "▁శ్లో": 7901,
      "▁ఆసుపత్రిలో": 7902,
      "▁సమాజంలో": 7903,
      "▁కానుక": 7904,
      "▁ఏర్పడి": 7905,
      "ల్స్,": 7906,
      "▁ప్లాట్": 7907,
      "▁త్రివిక్రమ్": 7908,
      "ౌట్": 7909,
      "▁విచారణకు": 7910,
      "▁సౌందర్య": 7911,
      "నైన": 7912,
      "తుక": 7913,
      "▁పతా": 7914,
      "మానికి": 7915,
      "▁స్థాయికి": 7916,
      "ఁగి": 7917,
      "గాను": 7918,
      "▁జపా": 7919,
      "▁ఘటనలో": 7920,
      "▁డ్రగ్స్": 7921,
      "▁జట్లు": 7922,
      "స్థల": 7923,
      "▁కార్యా": 7924,
      "▁అసిస్టెంట్": 7925,
      "▁ఏంటి": 7926,
      "▁అభిరు": 7927,
      "▁గంటలు": 7928,
      "గవ": 7929,
      "తిప": 7930,
      "▁హార": 7931,
      "▁ట్రి": 7932,
      "దే.": 7933,
      "▁కొన్నిసార్లు": 7934,
      "▁ప్రపంచం": 7935,
      "▁పత": 7936,
      "▁పోర్": 7937,
      "▁al": 7938,
      "యాలు,": 7939,
      "▁స్వంత": 7940,
      "▁అంబే": 7941,
      "▁సన్నా": 7942,
      "▁పుట్టు": 7943,
      "చేసే": 7944,
      "▁గ్రాండ్": 7945,
      "శ్చా": 7946,
      "స్లా": 7947,
      "▁రణ": 7948,
      "▁కాఫీ": 7949,
      "గ్గి": 7950,
      "▁పిక్": 7951,
      "▁యూజర్": 7952,
      "olog": 7953,
      "▁దౌ": 7954,
      "రును": 7955,
      "▁సిగ్గు": 7956,
      "త్పత్తి": 7957,
      "మయ్యాయి.": 7958,
      "▁వ్యాఖ్యానించారు.": 7959,
      "▁పెద": 7960,
      "బంధు": 7961,
      "▁మనుష": 7962,
      "▁మౌలిక": 7963,
      "▁చేతుల": 7964,
      "▁ఇకపై": 7965,
      "▁ప్రశ్నలు": 7966,
      "▁బలోపే": 7967,
      "\\nఈ": 7968,
      "▁మొదలుపెట్ట": 7969,
      "▁ఉన్నప్పటికీ": 7970,
      "▁ఐక్య": 7971,
      "▁అదనంగా,": 7972,
      "▁బాక్సాఫీ": 7973,
      "ాలను,": 7974,
      "▁కిషన్": 7975,
      "▁తెలిపిన": 7976,
      "▁హాని": 7977,
      "వి.<newline>": 7978,
      "▁ఇప్పు": 7979,
      "▁గనుక": 7980,
      "ట్టా": 7981,
      "▁సమస్త": 7982,
      "▁ఖై": 7983,
      "▁దేవా": 7984,
      "యను": 7985,
      "▁ఆర్.": 7986,
      "▁మర్": 7987,
      "▁పదార్థాలు": 7988,
      "▁అహ్మ": 7989,
      "▁చనిపోయిన": 7990,
      "▁ఉత్సాహ": 7991,
      "ేదో": 7992,
      "▁ఏర్పడింది.": 7993,
      "▁లభిస్తుంది.": 7994,
      "నికీ": 7995,
      "▁రియా": 7996,
      "▁విధానాన్ని": 7997,
      "▁మున్న": 7998,
      "▁జరిగాయి.": 7999,
      "▁ముందుగానే": 8000,
      "▁మహిళలకు": 8001,
      "▁ప్రాంతానికి": 8002,
      "▁ట్విటర్": 8003,
      "▁ఇంగ్ల": 8004,
      "▁7.": 8005,
      "▁కపూర్": 8006,
      "నీటి": 8007,
      "▁అమెరిక": 8008,
      "▁టేబుల్": 8009,
      "5.": 8010,
      "ష్కరణ": 8011,
      "క్షత్ర": 8012,
      "▁కొవిడ్": 8013,
      "▁నిదర్శ": 8014,
      "రణ్య": 8015,
      "▁జేయ": 8016,
      "▁అంతర్గత": 8017,
      "▁నిజామాబాద్": 8018,
      "బాల": 8019,
      "iz": 8020,
      "▁రం": 8021,
      "ంటినీ": 8022,
      "ారుల": 8023,
      "▁సీటు": 8024,
      "▁గోల్": 8025,
      "▁new": 8026,
      "ంటింగ్": 8027,
      "▁దేశీయ": 8028,
      "ూర": 8029,
      "▁ఉందన్నారు.": 8030,
      "▁గడప": 8031,
      "మా?": 8032,
      "ర్రెడ్డి": 8033,
      "▁మత్": 8034,
      "▁కింది": 8035,
      "▁అద్భుత": 8036,
      "▁ప్రవర్తన": 8037,
      "▁ప్రెసిడెంట్": 8038,
      "▁రేటింగ్": 8039,
      "కారము": 8040,
      "పము": 8041,
      "ించండి": 8042,
      "▁విజ్ఞాన": 8043,
      "ంపబడిన": 8044,
      "▁మెరి": 8045,
      "▁ప్రతిష్టా": 8046,
      "త్తిన": 8047,
      "▁బంగ్లా": 8048,
      "▁అవకా": 8049,
      "▁జీవి": 8050,
      "▁టిక్క": 8051,
      "▁అందంగా": 8052,
      "▁గ్రౌండ్": 8053,
      "▁హేతు": 8054,
      "▁డెలివరీ": 8055,
      "నగా": 8056,
      "▁రసాయ": 8057,
      "▁జగన్నా": 8058,
      "▁రాజకీయాలు": 8059,
      "▁ఆసుపత్రికి": 8060,
      "▁మాతృ": 8061,
      "▁దిక్కు": 8062,
      "▁లింక్": 8063,
      "ర్రె": 8064,
      "▁జయంతి": 8065,
      "▁హెచ్చరిక": 8066,
      "▁ఆయుధ": 8067,
      "కిన": 8068,
      "నుని": 8069,
      "▁గులా": 8070,
      "ంబంధ": 8071,
      "▁వీధి": 8072,
      "▁ఆసక్తికరమైన": 8073,
      "▁తెలుసుకున్న": 8074,
      "!!<newline>-": 8075,
      "ఫే": 8076,
      "పోతున్నారు.": 8077,
      "▁పిండి": 8078,
      "▁దిల్": 8079,
      "▁కాపీ": 8080,
      "▁సెంట్రల్": 8081,
      "▁క్రెడి": 8082,
      "▁ఆసక్తికర": 8083,
      "'s": 8084,
      "▁ఊహించని": 8085,
      "oc": 8086,
      "చ్య": 8087,
      "▁కం": 8088,
      "▁ఉల్లి": 8089,
      "ంధ్రా": 8090,
      "▁అతన్ని": 8091,
      "▁వ్రాసిన": 8092,
      "▁మల్టీ": 8093,
      "▁సమయానికి": 8094,
      "▁ఆర్మీ": 8095,
      "▁వారే": 8096,
      "▁నిర్వహిస్తున్న": 8097,
      "1,": 8098,
      "▁నకి": 8099,
      "తుండగా": 8100,
      "▁క్యారెక్టర్": 8101,
      "పాది": 8102,
      "▁త్త": 8103,
      "డఁ": 8104,
      "డట.": 8105,
      "▁ఇంధ": 8106,
      "▁197": 8107,
      "▁వొ": 8108,
      "▁సపోర్ట్": 8109,
      "▁జొ": 8110,
      "▁శేఖ": 8111,
      "ేదే": 8112,
      "▁దృశ్య": 8113,
      "▁ఇంజినీ": 8114,
      "ల్కు": 8115,
      "▁దయా": 8116,
      "వింద": 8117,
      "టెంట్": 8118,
      "▁వెల్లడించారు.<newline>": 8119,
      "▁ఇరవై": 8120,
      "ఘ్": 8121,
      "▁(3": 8122,
      "6.": 8123,
      "▁సుధా": 8124,
      "▁మృత్యు": 8125,
      "్రెడ్డి,": 8126,
      "ేశాడు.": 8127,
      "ప్పులు": 8128,
      "▁will": 8129,
      "▁ఛైర్మన్": 8130,
      "▁లేచి": 8131,
      "▁తేనె": 8132,
      "ai": 8133,
      "▁రకం": 8134,
      "▁చేయవచ్చు": 8135,
      "▁బుద్ధ": 8136,
      "▁ఆలయంలో": 8137,
      "▁స్పా": 8138,
      "▁పెడితే": 8139,
      "ల్చు": 8140,
      "▁కంట్రోల్": 8141,
      ":<newline>\"": 8142,
      "▁కలగ": 8143,
      "▁పర్వత": 8144,
      "▁స్వాతంత్ర": 8145,
      "▁కాగ": 8146,
      "మెంట": 8147,
      "ారీగా": 8148,
      "▁Z": 8149,
      "▁రాసి": 8150,
      "▁పేరును": 8151,
      "▁లీగ్": 8152,
      "▁మునిగి": 8153,
      "▁ఫిక్స్": 8154,
      "▁ఇదంతా": 8155,
      "▁పదో": 8156,
      "▁వివాదా": 8157,
      "▁చిహ్": 8158,
      "▁పరిమితం": 8159,
      "▁నిమ": 8160,
      "కస్": 8161,
      "▁కార్మికుల": 8162,
      "సరా": 8163,
      "▁ఉంటున్న": 8164,
      "▁స్వయం": 8165,
      "▁లిమిటెడ్": 8166,
      "▁బెయిల్": 8167,
      "▁గడువు": 8168,
      "దుర్": 8169,
      "▁పథకాలు": 8170,
      "▁ఉత్తర్వులు": 8171,
      "పోవడంతో": 8172,
      "▁గాక": 8173,
      "▁చారిత్ర": 8174,
      "▁భూమిని": 8175,
      "▁ఫుడ్": 8176,
      "దరణ": 8177,
      "▁చేయనున్నారు.": 8178,
      "▁డొ": 8179,
      "▁నటించారు.": 8180,
      "▁నీటిలో": 8181,
      "వాఁడు": 8182,
      "iral": 8183,
      "▁శాసనసభ": 8184,
      "ng": 8185,
      "డని,": 8186,
      "▁కొబ్బ": 8187,
      "ధికారి": 8188,
      "ములైన": 8189,
      "▁దూసుకు": 8190,
      "▁ఆలయం": 8191,
      "▁ముగింపు": 8192,
      "▁వ్యక్తుల": 8193,
      "▁సంతృప్తి": 8194,
      "▁రజనీ": 8195,
      "▁వెళితే": 8196,
      "▁ఫార్మా": 8197,
      "▁కృతజ్ఞతలు": 8198,
      "గఁ": 8199,
      "▁పటే": 8200,
      "▁ఉద్యోగులకు": 8201,
      "ric": 8202,
      "▁బాబా": 8203,
      "▁వంశీ": 8204,
      "డక": 8205,
      "▁పటి": 8206,
      "వాదులు": 8207,
      "▁అందజేశారు.": 8208,
      "▁రీతిలో": 8209,
      "9.": 8210,
      "▁ఆచార్య": 8211,
      "▁రావాలని": 8212,
      "▁ప్రేక్షకులకు": 8213,
      "▁ఫ్లో": 8214,
      "4,": 8215,
      "▁సభ్యుడు": 8216,
      "▁భాషల్లో": 8217,
      "ెక్టరేట్": 8218,
      "ంప్రదాయ": 8219,
      "▁అప్లికేషన్": 8220,
      "▁కాపు": 8221,
      "డ్లు": 8222,
      "కాదు.": 8223,
      "anj": 8224,
      "▁పనుల": 8225,
      "▁వెయ్యి": 8226,
      "దేశంలో": 8227,
      "▁యూరో": 8228,
      "▁సంఘాల": 8229,
      "సూయ": 8230,
      "▁ఆప్షన్": 8231,
      "▁రీసెర్చ్": 8232,
      "దగ్గ": 8233,
      "▁మార్గంలో": 8234,
      "▁తిరగ": 8235,
      "▁లక్ష్మి": 8236,
      "▁వస్తువులు": 8237,
      "▁పరిచయ": 8238,
      "▁మాని": 8239,
      "వేంద్ర": 8240,
      "▁అందరినీ": 8241,
      "లవరం": 8242,
      "వాలని": 8243,
      "▁తై": 8244,
      "తున్నాను.": 8245,
      "▁స్ఫూర్తి": 8246,
      "మాని": 8247,
      "▁అందిస్తుంది.": 8248,
      "▁లావాదేవీ": 8249,
      "▁ఏరియా": 8250,
      "నీయా": 8251,
      "▁రివ్యూ": 8252,
      "ట్లకు": 8253,
      "▁చేయలేదు.": 8254,
      "షిప్": 8255,
      "▁ఆధార్": 8256,
      "▁రికార్డ్": 8257,
      "▁ప్లేయర్": 8258,
      "▁చేస్తున్నాడు.": 8259,
      "పాలి": 8260,
      "▁సినిమాపై": 8261,
      "ప్రస్తు": 8262,
      "▁ab": 8263,
      "▁హోట": 8264,
      "▁పరిశీలించారు.": 8265,
      "▁బడి": 8266,
      "▁విప్": 8267,
      "▁వ్యక్తిని": 8268,
      "▁ప్రజాప్రతిని": 8269,
      "▁డీజిల్": 8270,
      "▁(P": 8271,
      "▁నాయకుల": 8272,
      "▁వెళ్తున్న": 8273,
      "▁ఆక్సిజన్": 8274,
      "▁కర్నూలు": 8275,
      "నిజ": 8276,
      "మ,": 8277,
      "▁పెడ": 8278,
      "▁మరణం": 8279,
      "▁చేయబడిన": 8280,
      "ించుచున్న": 8281,
      "▁టీకా": 8282,
      "▁Reddy": 8283,
      "▁ఆహ": 8284,
      "▁అల్లా": 8285,
      "ించగల": 8286,
      "డానికి,": 8287,
      "ం<newline>": 8288,
      "▁చెత్త": 8289,
      "▁చేయడంలో": 8290,
      "ధ్యాయ": 8291,
      "▁మెసే": 8292,
      "▁పొడవు": 8293,
      "▁తీసుకుంటే": 8294,
      "కైన": 8295,
      "న్.<newline>": 8296,
      "ంగే": 8297,
      "▁పొలి": 8298,
      "▁పట్టా": 8299,
      "▁up": 8300,
      "ాలన్నీ": 8301,
      "▁రాజస్థాన్": 8302,
      "ను\"": 8303,
      "▁ఉంటాయి": 8304,
      "▁ప్లస్": 8305,
      "ించాలి": 8306,
      "▁సాంస్కృతి": 8307,
      "▁పొందే": 8308,
      "▁స్పూ": 8309,
      "▁హరీష్": 8310,
      "▁క్రియేట్": 8311,
      "ండం": 8312,
      "▁ఎంచుకు": 8313,
      "▁ఒకప్పుడు": 8314,
      "▁తరపున": 8315,
      "భూత": 8316,
      "భవి": 8317,
      "వృత్త": 8318,
      "▁నడుపు": 8319,
      "▁కలకలం": 8320,
      "▁సంచలనం": 8321,
      "▁పుష్": 8322,
      "గ్రే": 8323,
      "▁పర్యాటక": 8324,
      "aa": 8325,
      "▁దాట": 8326,
      "▁జరిప": 8327,
      "▁పరిస్థితిని": 8328,
      "▁విశ్వా": 8329,
      "▁పరమాత్మ": 8330,
      "▁ఆడియో": 8331,
      "▁ఫౌ": 8332,
      "▁మేధ": 8333,
      "▁తేల్చి": 8334,
      "▁వెంకటే": 8335,
      "rop": 8336,
      "▁ఛార్": 8337,
      "▁ఎకరాల": 8338,
      "పక": 8339,
      "▁ఖు": 8340,
      "▁ఖరారు": 8341,
      "▁ప్లాంట్": 8342,
      "▁ఘోర": 8343,
      "ee": 8344,
      "కలి": 8345,
      "▁బీచ్": 8346,
      "ుడి": 8347,
      "క్తు": 8348,
      "▁నెలల్లో": 8349,
      "▁కథనం": 8350,
      "▁టాటా": 8351,
      "నవి": 8352,
      "▁వారా": 8353,
      "▁ఏటా": 8354,
      "ట్రిక్": 8355,
      "▁అడుగుల": 8356,
      "45": 8357,
      "న్సు": 8358,
      "▁ప్రక్క": 8359,
      "నాది": 8360,
      "▁పూల": 8361,
      "▁కర్త": 8362,
      "▁మేకర్స్": 8363,
      "▁సమక్ష": 8364,
      "▁సమ్మె": 8365,
      "▁కావచ్చు.": 8366,
      "రులతో": 8367,
      "▁ఫ్యాక్టరీ": 8368,
      "▁విభజ": 8369,
      "ox": 8370,
      "సిప": 8371,
      "▁ధను": 8372,
      "▁కాలంగా": 8373,
      "▁ధూ": 8374,
      "▁మాట్లాడుతూ..": 8375,
      "▁అరవింద్": 8376,
      "▁తెలుసుకోవ": 8377,
      "న్యాస": 8378,
      "▁నెటిజన్లు": 8379,
      "▁ప్రియాంక": 8380,
      "వతీ": 8381,
      "▁మల్లి": 8382,
      "▁అప్పుడ": 8383,
      "▁కొవ్వు": 8384,
      "▁పేలు": 8385,
      "▁కెసిఆర్": 8386,
      "▁సి.": 8387,
      "▁నినాద": 8388,
      "▁ఝ": 8389,
      "బీసీ": 8390,
      "▁ఆమోదం": 8391,
      "▁all": 8392,
      "▁తోట": 8393,
      "13": 8394,
      "కతా": 8395,
      "▁దళి": 8396,
      "▁కాబో": 8397,
      "▁సంస్": 8398,
      "▁క్రియా": 8399,
      "▁గెలిచిన": 8400,
      "▁అబ్బాయి": 8401,
      "▁విజే": 8402,
      "ముల్": 8403,
      "వాలో": 8404,
      "▁వార్షిక": 8405,
      "▁ఛాన్స్": 8406,
      "▁టోర్నీ": 8407,
      "▁జమ": 8408,
      "ల్దార్": 8409,
      "స్థితి": 8410,
      "▁ప్రకటించ": 8411,
      "స్టులు": 8412,
      "న్నియు": 8413,
      "▁కనిపించింది.": 8414,
      "నివ్వ": 8415,
      "▁విగ్ర": 8416,
      "ర్చీ": 8417,
      "▁క్లబ్": 8418,
      "▁కామెంట్లు": 8419,
      "▁చోటుచేసుకుంది.": 8420,
      "డి.": 8421,
      "▁అంజ": 8422,
      "▁రోజా": 8423,
      "▁తమను": 8424,
      "▁పక్కా": 8425,
      "▁ఖాతాలో": 8426,
      "▁ప్రత్యామ్నాయ": 8427,
      "▁వస్త్ర": 8428,
      "▁రూమ్": 8429,
      "▁చిన్నారి": 8430,
      "▁పూరి": 8431,
      "▁అడిగా": 8432,
      "▁పరిష్": 8433,
      "▁సుధ": 8434,
      "▁హైదరా": 8435,
      "▁సహకారం": 8436,
      "▁రామారావు": 8437,
      "▁చేస్తుంది.<newline>": 8438,
      "▁దగ్గరగా": 8439,
      "▁ఉష్ణోగ్రత": 8440,
      "▁ప్రొఫెసర్": 8441,
      "▁రవీంద్ర": 8442,
      "ండిః": 8443,
      "▁చెబుతూ": 8444,
      "▁సర్వీస్": 8445,
      "కను": 8446,
      "▁బెదిరి": 8447,
      "▁ఉందో": 8448,
      "చోట": 8449,
      "▁అదృష్ట": 8450,
      "బ్ల్యూ": 8451,
      "పుణ్య": 8452,
      "▁పెన్షన్": 8453,
      "▁నాన్": 8454,
      "▁నిర్దేశ": 8455,
      "▁అధికారులు,": 8456,
      "▁నెట్వర్క్": 8457,
      "రామ్": 8458,
      "▁ఫైనా": 8459,
      "▁తొందర": 8460,
      "▁బీజేపీకి": 8461,
      "▁మనోహ": 8462,
      "▁నోరు": 8463,
      "▁కావాల్సిన": 8464,
      "నేది": 8465,
      "క్కా": 8466,
      "▁ఉపయోగం": 8467,
      "▁మైక్రో": 8468,
      "23": 8469,
      "ుఁ": 8470,
      "▁విక": 8471,
      "నీయంగా": 8472,
      "మ్మని": 8473,
      "ash": 8474,
      "▁ఆస్పత్రిలో": 8475,
      "▁అదానీ": 8476,
      "▁నెలకు": 8477,
      "ప్పటికి": 8478,
      "జిన్": 8479,
      "▁క్లీ": 8480,
      "▁తప్పక": 8481,
      "▁తెరకెక్కి": 8482,
      "▁ఉండేలా": 8483,
      "ంపా": 8484,
      "▁స్టె": 8485,
      "▁గౌరవం": 8486,
      "శాస్త్రి": 8487,
      "ల్తా": 8488,
      "▁బస": 8489,
      "▁గడుపు": 8490,
      "▁ఉండడంతో": 8491,
      "▁జరిగింది": 8492,
      "▁క్రికెటర్": 8493,
      "యొక": 8494,
      "▁సప్త": 8495,
      "▁కాళ": 8496,
      "▁(S": 8497,
      "▁వరుణ్": 8498,
      "శంకర్": 8499,
      "▁యన": 8500,
      "రాజ్య": 8501,
      "లక్షల": 8502,
      "▁సెక్యూరిటీ": 8503,
      "ress": 8504,
      "మ్మ,": 8505,
      "▁అధిగమ": 8506,
      "గర్భ": 8507,
      "తరం": 8508,
      "▁ధోనీ": 8509,
      "▁ఠా": 8510,
      "▁ట్రో": 8511,
      "సాన్ని": 8512,
      "▁మిశ్ర": 8513,
      "▁ఉపసం": 8514,
      "'<newline>": 8515,
      "▁చెబుతున్నారు.<newline>": 8516,
      "▁లాభం": 8517,
      "భరణ": 8518,
      "▁పుష్క": 8519,
      "▁అధికారంలో": 8520,
      "▁నిలబె": 8521,
      "▁బ్రిటి": 8522,
      "నలో": 8523,
      "▁మీరే": 8524,
      "▁ప్రధానమంత్రి": 8525,
      "ల్ట్": 8526,
      "యుని": 8527,
      "\\nఆ": 8528,
      "▁ముఖం": 8529,
      "ంపియన్": 8530,
      "▁వేసింది.": 8531,
      "▁రెస్టార": 8532,
      "▁ఇచ్చా": 8533,
      "▁శుభ్రం": 8534,
      "▁టీటీడీ": 8535,
      "కరం": 8536,
      "▁ధ్రు": 8537,
      "▁ప్రజల్లో": 8538,
      "▁నెలలు": 8539,
      "▁స్థానాల్లో": 8540,
      "▁వీడియోను": 8541,
      "▁భుజ": 8542,
      "ందె": 8543,
      "▁ఉద్": 8544,
      "▁ప్రతిపాద": 8545,
      "▁ఎస్బీఐ": 8546,
      "ిల్స్": 8547,
      "▁పెళ్ళి": 8548,
      "లైన్లో": 8549,
      "▁sh": 8550,
      "▁సౌత్": 8551,
      "▁అసంతృప్తి": 8552,
      "స్థిత": 8553,
      "▁స్థలం": 8554,
      "▁శ్రీరామ": 8555,
      "▁ప్రాంతాలకు": 8556,
      "▁తీసుకుంటున్న": 8557,
      "▁ఎస్టీ": 8558,
      "▁వినియోగదారులు": 8559,
      "▁అంబా": 8560,
      "▁నివసి": 8561,
      "▁అణ": 8562,
      "▁సోనియా": 8563,
      "కపోవ": 8564,
      "నేక": 8565,
      "తోన్న": 8566,
      "▁లోపు": 8567,
      "▁పుత్ర": 8568,
      "▁శిబి": 8569,
      "▁జోన్": 8570,
      "▁వాహనం": 8571,
      "వేసి": 8572,
      "▁సైనిక": 8573,
      "▁పెట్టడం": 8574,
      "▁వీరిలో": 8575,
      "జేషన్": 8576,
      "▁కుటుంబసభ్య": 8577,
      "▁ఆరోగ్యానికి": 8578,
      "గాని,": 8579,
      "న్నా,": 8580,
      "▁వేంకట": 8581,
      "▁మేఘ": 8582,
      "▁కారులో": 8583,
      "▁ఆనంద్": 8584,
      "▁దృశ": 8585,
      "▁సవరణ": 8586,
      "▁హస్త": 8587,
      "పైగా": 8588,
      "▁కాదు.<newline>": 8589,
      "▁రొమా": 8590,
      "▁పడుతుంది.": 8591,
      "▁రచ్చ": 8592,
      "▁శ్రీకాంత్": 8593,
      "▁కూర్చో": 8594,
      "▁ఆవ": 8595,
      "▁పొగ": 8596,
      "▁సమావేశాలు": 8597,
      "నాయుడు": 8598,
      "▁జగన్మోహన్": 8599,
      "బ్రిటీ": 8600,
      "కాన్": 8601,
      "▁8.": 8602,
      "▁శాంత": 8603,
      "▁నాశనం": 8604,
      "భ్యా": 8605,
      "▁బన్నీ": 8606,
      "▁తరుణంలో": 8607,
      "▁కనబ": 8608,
      "▁కోరుతూ": 8609,
      "్మ": 8610,
      "▁భామ": 8611,
      "▁అధికారులతో": 8612,
      "▁కలిగే": 8613,
      "▁గెలుపు": 8614,
      "▁అగర్": 8615,
      "▁ఇంటె": 8616,
      "▁జులై": 8617,
      "▁నమ్మక": 8618,
      "▁పరో": 8619,
      "▁భరించ": 8620,
      "▁ప్రాచీన": 8621,
      "▁౨": 8622,
      "▁పెట్టుబడులు": 8623,
      "పన": 8624,
      "స్తాయని": 8625,
      "▁సిగ్": 8626,
      "ణాల్లో": 8627,
      "వాళ్ల": 8628,
      "▁స్పోర్": 8629,
      "▁వాళ్లకు": 8630,
      "▁విధులు": 8631,
      "▁వాహనాలు": 8632,
      "పిక": 8633,
      "నిర్మా": 8634,
      "▁నిరూ": 8635,
      "▁ఉపశ": 8636,
      "▁ణ": 8637,
      "▁సిఎం": 8638,
      "▁చంపే": 8639,
      "▁అణు": 8640,
      "▁ఉప్ప": 8641,
      "▁బాడీ": 8642,
      "▁దాడికి": 8643,
      "శివ": 8644,
      "▁వదిల": 8645,
      "▁అఖిల్": 8646,
      "▁సింహ": 8647,
      "21": 8648,
      "sk": 8649,
      "త్తుల": 8650,
      "▁కాకుండా,": 8651,
      "▁నరసింహ": 8652,
      "▁డైన": 8653,
      "▁3,": 8654,
      "▁న్యాయమూర్తి": 8655,
      "▁పురాతన": 8656,
      "▁కేబినెట్": 8657,
      "▁హీరోయిన్గా": 8658,
      "▁దుర్మ": 8659,
      "ణ్ణ": 8660,
      "▁స్టార్ట్": 8661,
      "▁చేసుకోవాలి.": 8662,
      "▁వంతు": 8663,
      "▁దగ్గు": 8664,
      "కాలంగా": 8665,
      "గోళ": 8666,
      "▁ప్రమోషన్": 8667,
      "▁లారీ": 8668,
      "▁ప్రధా": 8669,
      "ేశా": 8670,
      "▁యుండ": 8671,
      "ార్ట్మెంట్": 8672,
      "పరా": 8673,
      "గాంధీ": 8674,
      "పాఠ": 8675,
      "▁పరికర": 8676,
      "స్పా": 8677,
      "▁శాశ్వత": 8678,
      "▁ఇంగ్లండ్": 8679,
      "టు.": 8680,
      "▁అర్చ": 8681,
      "టిక్స్": 8682,
      "రాలుగా": 8683,
      "ంతో,": 8684,
      "▁నీతి": 8685,
      "▁ఆరోపి": 8686,
      "వాల్సిందే": 8687,
      "▁తేడాతో": 8688,
      "▁బదులుగా": 8689,
      "▁పాయి": 8690,
      "▁నిత్యా": 8691,
      "▁పిల్లలను": 8692,
      "▁సమర్పించ": 8693,
      "పించి": 8694,
      "లేరు.": 8695,
      "డ్డి.": 8696,
      "కుమార్,": 8697,
      "▁చేయాల్సిన": 8698,
      "తరు": 8699,
      "▁సీఎ": 8700,
      "▁వ్యాసం": 8701,
      "పోయింది": 8702,
      "ేశ్వర్": 8703,
      "▁ప్రథమ": 8704,
      "-0": 8705,
      "▁\"ఇ": 8706,
      "భిప్రాయ": 8707,
      "▁చుక్క": 8708,
      "▁మొదలైంది.": 8709,
      "టంలో": 8710,
      "▁వాసన": 8711,
      "▁దుష్": 8712,
      "▁హయాంలో": 8713,
      "▁క్రెడిట్": 8714,
      "న్నం": 8715,
      "▁రోజువారీ": 8716,
      "▁భూములు": 8717,
      "▁డ్రెస్": 8718,
      "▁లభ్య": 8719,
      "▁ద్వితీ": 8720,
      "లేకపోయ": 8721,
      "భర్": 8722,
      "▁ఘనత": 8723,
      "▁ఫిట్": 8724,
      "▁రెగ్యులర్": 8725,
      "▁ధన్యవాదాలు": 8726,
      "▁పోయింది.": 8727,
      "▁అని.": 8728,
      "లిన్": 8729,
      "మిటి": 8730,
      "▁మంచిది": 8731,
      "▁రకరకాల": 8732,
      "▁ఎంజాయ్": 8733,
      "బ్రా": 8734,
      "▁గడ్డ": 8735,
      "▁ఈటల": 8736,
      "చ్చారు.<newline>": 8737,
      "లేదని,": 8738,
      "▁కీలకమైన": 8739,
      "▁ప్రకటనలో": 8740,
      "▁ప్రవీ": 8741,
      "▁ముప్పు": 8742,
      "రేజ్": 8743,
      "ity": 8744,
      "▁వ్యవస్థను": 8745,
      "▁ప్రవేశపెట్ట": 8746,
      "▁భగవ": 8747,
      "▁బ్లూ": 8748,
      "▁ఉండాలి.<newline>": 8749,
      "▁షు": 8750,
      "▁రూపం": 8751,
      "▁భోజన": 8752,
      "యిక": 8753,
      "మేజ్": 8754,
      "కారణ": 8755,
      "▁నాలుగే": 8756,
      "▁వేధింపు": 8757,
      "▁ఆర": 8758,
      "తాం": 8759,
      "▁ex": 8760,
      "▁గదిలో": 8761,
      "▁పరిమాణం": 8762,
      "▁వృక్ష": 8763,
      "ల్సిందే.": 8764,
      "నవ": 8765,
      "▁కుమార్,": 8766,
      "▁తినడం": 8767,
      "▁కమర్": 8768,
      "టిగా": 8769,
      "▁మానే": 8770,
      "▁చూశ": 8771,
      "డుతున్నా": 8772,
      "▁పెట్టుకున్న": 8773,
      "▁సందర్భాల్లో": 8774,
      "ial": 8775,
      "▁మాంసం": 8776,
      "ండిరి.": 8777,
      "▁మొత్తాన్ని": 8778,
      "▁సారా": 8779,
      "స్తులు,": 8780,
      "వోయి": 8781,
      "▁నిలిచిన": 8782,
      "▁ఆనందంగా": 8783,
      "▁కనిపించడం": 8784,
      "చట": 8785,
      "▁చీర": 8786,
      "▁టర్కీ": 8787,
      "న్నట్లు": 8788,
      "▁వాడే": 8789,
      "చుఁ": 8790,
      "▁ఊర": 8791,
      "ాయా?": 8792,
      "పడ్డారు.<newline>": 8793,
      "సీసీఐ": 8794,
      "నే.": 8795,
      "▁టి.": 8796,
      "▁రూపు": 8797,
      "▁సంభాషణ": 8798,
      "▁రాయలసీమ": 8799,
      "ంట్ల": 8800,
      "\\nఇ": 8801,
      "▁అరుదైన": 8802,
      "డానికి.": 8803,
      "▁ప్రవహ": 8804,
      "కాన": 8805,
      "▁ద్వార": 8806,
      "మము": 8807,
      "▁అజయ్": 8808,
      "▁కొను": 8809,
      "వినియోగం": 8810,
      "▁అంతగా": 8811,
      "▁196": 8812,
      "▁అమెజాన్": 8813,
      "దికి": 8814,
      "▁సింధ": 8815,
      "▁Th": 8816,
      "▁దూసు": 8817,
      "ty": 8818,
      "జార్": 8819,
      "లిష్": 8820,
      "ఁబడిన": 8821,
      "సల్": 8822,
      "▁చెప్పారు": 8823,
      "వ్,": 8824,
      "▁ప్రాంతీయ": 8825,
      "▁అనంతపురం": 8826,
      "▁వచ్చాడు.": 8827,
      "▁హీరోలు": 8828,
      "▁2015": 8829,
      "▁సివి": 8830,
      "▁ధరించి": 8831,
      "▁మేన": 8832,
      "▁గోపీ": 8833,
      "▁శృంగార": 8834,
      "▁ఆచరణ": 8835,
      "డ్లో": 8836,
      "పించిన": 8837,
      "క్లో": 8838,
      "▁ప్రొడక్షన్": 8839,
      "▁త్య": 8840,
      "▁రాబో": 8841,
      "ary": 8842,
      "▁సముచిత": 8843,
      "▁లండ": 8844,
      "జాతి": 8845,
      "▁భారత్లో": 8846,
      "oy": 8847,
      "ఖండ్": 8848,
      "▁రోజ": 8849,
      "▁ఘర్షణ": 8850,
      "▁శుద్ధ": 8851,
      "▁నిర్మించారు.": 8852,
      "▁పురాణ": 8853,
      "నొ": 8854,
      "ించటం": 8855,
      "లి,": 8856,
      "▁డా.": 8857,
      "▁గ్లామర్": 8858,
      "బాల్": 8859,
      "▁ప్రాముఖ్య": 8860,
      "▁శాతానికి": 8861,
      "కుండానే": 8862,
      "▁కృతి": 8863,
      "వున్న": 8864,
      "..?": 8865,
      "▁వచ్చిందని": 8866,
      "▁పరిస్థితుల": 8867,
      "▁నకిలీ": 8868,
      "మటి": 8869,
      "స్త్": 8870,
      "శ్లో": 8871,
      "▁ఇచ్చాడు.": 8872,
      "▁రెండూ": 8873,
      "▁చేస్తుంది": 8874,
      "▁ఉత్తరప్రదేశ్": 8875,
      "▁అనుసరించ": 8876,
      "▁ప్రతిబి": 8877,
      "!\"": 8878,
      "BI": 8879,
      "▁మన్": 8880,
      "▁విలీ": 8881,
      "ణాం": 8882,
      "\\n\"": 8883,
      "కులతో": 8884,
      "▁సభ్యు": 8885,
      "▁మున్సిపాలిటీ": 8886,
      "▁అయితే.": 8887,
      "▁మాట్లాడుతూ,": 8888,
      "▁మరణించిన": 8889,
      "▁ఒకేసారి": 8890,
      "▁ఓపెనర్": 8891,
      "కోండి.": 8892,
      "▁గ్రాముల": 8893,
      "ర్చిన": 8894,
      "▁కారణాల": 8895,
      "▁ఊరి": 8896,
      "ta": 8897,
      "ృతంగా": 8898,
      "▁విందు": 8899,
      "▁మాస": 8900,
      "▁లేదన్నారు.": 8901,
      "▁పుస్తకం": 8902,
      "▁కార్పొరేట్": 8903,
      "ాయే": 8904,
      "తున్నారని": 8905,
      "▁కిష": 8906,
      "స్టేషన్": 8907,
      "▁సంతాన": 8908,
      "▁(T": 8909,
      "ులుగా": 8910,
      "ములుగా": 8911,
      "▁ప్రసారం": 8912,
      "▁ఉంటాయని": 8913,
      "▁పిలుపునిచ్చారు.": 8914,
      "▁శర": 8915,
      "▁ముల": 8916,
      "చువల్": 8917,
      "స్తున్నట్టు": 8918,
      "▁ఓట్ల": 8919,
      "శాంతి": 8920,
      "▁ఊరు": 8921,
      "▁సదస్సు": 8922,
      "▁పఠ": 8923,
      "క్తంగా": 8924,
      "▁సమయంలో,": 8925,
      "▁హోమ్": 8926,
      "జీవిత": 8927,
      "లేదా": 8928,
      "▁టాపిక్": 8929,
      "▁ఏమిటో": 8930,
      "▁అడుగులు": 8931,
      "కాలుగా": 8932,
      "▁వాసు": 8933,
      "▁ఫామ్": 8934,
      "▁సేకరణ": 8935,
      "<newline>మ": 8936,
      "▁ప్రతా": 8937,
      "▁డి.": 8938,
      "▁నైపుణ": 8939,
      "day": 8940,
      "▁కళ్ళ": 8941,
      "క్ల": 8942,
      "▁ఓకే": 8943,
      "▁చెప్పినట్లు": 8944,
      "▁వంతెన": 8945,
      "నెస్": 8946,
      "కుల్": 8947,
      "▁ఉరి": 8948,
      "▁సిబ్బ": 8949,
      "▁భావో": 8950,
      "▁బిలియన్": 8951,
      "▁ఎన్.": 8952,
      "▁మాటల": 8953,
      "▁#A": 8954,
      "▁ఏమిటి?": 8955,
      "▁నవ్వ": 8956,
      "▁విస్మ": 8957,
      "▁మార్క్": 8958,
      "▁చేసుకున్నాడు.": 8959,
      "▁ప్రసాద": 8960,
      "▁అఖిల": 8961,
      "▁వేసవి": 8962,
      "మస్": 8963,
      "▁వెండి": 8964,
      "▁లభించింది.": 8965,
      "▁నిశ్చయ": 8966,
      "▁సమకూర్": 8967,
      "▁మార్చు": 8968,
      "▁ఉద్యోగి": 8969,
      "▁పరిష్కార": 8970,
      "▁తావు": 8971,
      "▁ప్రతిష్ఠ": 8972,
      "▁పదం": 8973,
      "▁సైన్": 8974,
      "▁అతిథ": 8975,
      "▁చ్": 8976,
      "▁నివాసం": 8977,
      "▁కుదు": 8978,
      "▁సార్వ": 8979,
      "ోప": 8980,
      "ళ్లా": 8981,
      "▁పెరుగుదల": 8982,
      "▁ఆడిన": 8983,
      "▁చేయండి.<newline>": 8984,
      "నికల్": 8985,
      "▁వసంత": 8986,
      "▁సన": 8987,
      "▁నింప": 8988,
      "▁రాధా": 8989,
      "▁థ్రి": 8990,
      "▁ఇంగ్లాండ్": 8991,
      "▁హాజరయ్యారు.": 8992,
      "ry": 8993,
      "చంద్": 8994,
      "▁ఎగ": 8995,
      "కాంత": 8996,
      "అని": 8997,
      "▁స్పష్టమైన": 8998,
      "▁ఫలితాలను": 8999,
      "▁చేయబో": 9000,
      "▁పెరుగుతుంది.": 9001,
      "▁అయిదు": 9002,
      "ల్పు": 9003,
      "రాం": 9004,
      "▁ఆచ": 9005,
      "▁Also": 9006,
      "▁వెల్": 9007,
      "బడుతుంది": 9008,
      "▁విలన్": 9009,
      "▁ధైర్యం": 9010,
      "▁తీర్చు": 9011,
      "▁శ్రీకృష్ణ": 9012,
      "▁మధ్యప్రదేశ్": 9013,
      "▁కాలువ": 9014,
      "టీన్": 9015,
      "▁ములు": 9016,
      "▁షేక్": 9017,
      "▁కిలోల": 9018,
      "▁స్క్రిప్": 9019,
      "▁నగరంలోని": 9020,
      "▁సల్మాన్": 9021,
      "▁చల": 9022,
      "▁నుండు": 9023,
      "రాజు,": 9024,
      "▁భక్తుల": 9025,
      "▁ప్యాకేజీ": 9026,
      "ొని": 9027,
      "గాడు.": 9028,
      "చుండ": 9029,
      "▁అనుచ": 9030,
      "▁అవకాశము": 9031,
      "▁చేస్తున్నాయి.": 9032,
      "▁ఎంటర్టై": 9033,
      "వలయును.": 9034,
      "▁మది": 9035,
      "▁ఫార": 9036,
      "▁సాగర్": 9037,
      "▁దీనితో": 9038,
      "▁చము": 9039,
      "▁గను": 9040,
      "▁జన్": 9041,
      "మిషన్": 9042,
      "▁బాక్సాఫీస్": 9043,
      "దాసు": 9044,
      "▁వారంలో": 9045,
      "▁గింజ": 9046,
      "స్వరూప": 9047,
      "▁కోట్లతో": 9048,
      "గృహ": 9049,
      "టైన": 9050,
      "ర్లో": 9051,
      "ంచి,": 9052,
      "బడింది.<newline>": 9053,
      "▁జత": 9054,
      "▁లతో": 9055,
      "కేంద్ర": 9056,
      "క్లి": 9057,
      "▁భారం": 9058,
      "▁పోవు": 9059,
      "▁వుంటుంది.": 9060,
      "▁దృఢ": 9061,
      "▁స్మృతి": 9062,
      "లాల్లో": 9063,
      "చ్చాడు.": 9064,
      "▁ప్రాతిని": 9065,
      "మవుతోంది.": 9066,
      "▁కైట్": 9067,
      "చల": 9068,
      "ఫార": 9069,
      "▁గంజ": 9070,
      "▁రోగి": 9071,
      "▁తోడ్": 9072,
      "▁సైన్స్": 9073,
      "▁చేశాడు.<newline>": 9074,
      "చారానికి": 9075,
      "▁తినే": 9076,
      "గులకు": 9077,
      "ేశారు.<newline>": 9078,
      "కుంట": 9079,
      "▁రూరల్": 9080,
      "▁పేర": 9081,
      "▁పరిశు": 9082,
      "పరంగా": 9083,
      "▁సునీల్": 9084,
      "▁ఆవిష్కరించ": 9085,
      "ఖండ": 9086,
      "▁తథా": 9087,
      "▁తీసుకున్నా": 9088,
      "▁ఉపయోగించే": 9089,
      "▁పెంచుకు": 9090,
      "▁క్షి": 9091,
      "▁వేరియంట్": 9092,
      "▁సదా": 9093,
      "▁ఆయిల్": 9094,
      "▁మోడ": 9095,
      "ంజనే": 9096,
      "▁195": 9097,
      "▁ఆదిత్య": 9098,
      "▁వైష్ణ": 9099,
      "సెల్": 9100,
      "ణీయ": 9101,
      "▁భవనం": 9102,
      "▁కేజీ": 9103,
      "లీల": 9104,
      "▁ప్రాసె": 9105,
      "▁ఉండేవ": 9106,
      "▁అభివృ": 9107,
      "▁సర్దు": 9108,
      "▁మాత్రమే.": 9109,
      "స్తున్నాం.": 9110,
      "న్కు": 9111,
      "▁విషయా": 9112,
      "▁vs": 9113,
      "▁స్వాగతం": 9114,
      "▁టన్నుల": 9115,
      ")లో": 9116,
      "angana": 9117,
      "▁లక్": 9118,
      "▁మాధ్య": 9119,
      "కాలు,": 9120,
      "ank": 9121,
      "▁ప్రశ్నకు": 9122,
      "<newline>శ్రీ": 9123,
      "శరీ": 9124,
      "ంద్రీ": 9125,
      "▁వేష": 9126,
      "ath": 9127,
      "ati": 9128,
      "స్రా": 9129,
      "ందన": 9130,
      "ంటీర్": 9131,
      "్రిక్త": 9132,
      "▁సభకు": 9133,
      "▁అడ్డం": 9134,
      "-ఆ": 9135,
      "పార": 9136,
      "ింప": 9137,
      "▁తెలియజేయ": 9138,
      "2,": 9139,
      "▁le": 9140,
      "▁స్నేహితు": 9141,
      "▁పల": 9142,
      "▁ఇవే": 9143,
      "▁దివ": 9144,
      "▁చేసుకుంటూ": 9145,
      "▁ఉద్రిక్త": 9146,
      "▁ట్రాక్": 9147,
      "▁కొనసాగుతోంది.": 9148,
      "▁నిమిషాలు": 9149,
      "▁మెదడు": 9150,
      "▁ముప్ప": 9151,
      "▁దిగ్": 9152,
      "▁ప్రముఖులు": 9153,
      "▁ఇంటర్వ్యూలో": 9154,
      "▁క్రొత్త": 9155,
      "ss": 9156,
      "▁నక్షత్ర": 9157,
      "జాత": 9158,
      "ణాలు,": 9159,
      "తిని.": 9160,
      "ట్టేందుకు": 9161,
      "▁బలోపేతం": 9162,
      "▁విజయన": 9163,
      "▁గ్రంధ": 9164,
      "▁దొర": 9165,
      "గై": 9166,
      "గాన": 9167,
      "▁పాల్పడిన": 9168,
      "__": 9169,
      "లుక": 9170,
      "జ్మెంట్": 9171,
      "లేరు": 9172,
      "▁పొల": 9173,
      "రెంట్": 9174,
      "▁సామాన్యు": 9175,
      "▁అంత్య": 9176,
      "▁భూత": 9177,
      "▁పాఠశాలలో": 9178,
      "▁కోల్పోయిన": 9179,
      "▁గంధ": 9180,
      "▁మొత్తంగా": 9181,
      "ఁగల": 9182,
      "▁జీవో": 9183,
      "▁ఒక్కరి": 9184,
      "▁చేస్తానని": 9185,
      "▁సంస్కరణ": 9186,
      "డ్డాడు.": 9187,
      "emb": 9188,
      "▁కేంద్రానికి": 9189,
      "▁డెవలప్": 9190,
      "▁గాజు": 9191,
      "▁ప్రత్యు": 9192,
      "▁ఎంపి": 9193,
      "▁క్షమా": 9194,
      "వరా": 9195,
      "▁పోలవరం": 9196,
      "▁తాత": 9197,
      "▁ప్రారంభమైంది.": 9198,
      "▁పెరిగే": 9199,
      "▁చిత్తూరు": 9200,
      "Hyderabad": 9201,
      "దీయ": 9202,
      "▁పాల్గొని": 9203,
      "▁కమర్షియల్": 9204,
      "▁సీతా": 9205,
      "▁సభ్యులకు": 9206,
      "▁దొరికి": 9207,
      "క్షేత్ర": 9208,
      "▁రు.": 9209,
      "▁ఆలస్యం": 9210,
      "జ్యో": 9211,
      "▁సందర్భంలో,": 9212,
      "టిట్యూ": 9213,
      "▁కొలు": 9214,
      "▁వెన్నె": 9215,
      "▁చిట్": 9216,
      "▁సమాజం": 9217,
      "ించుకుంది.": 9218,
      "తెర": 9219,
      "hra": 9220,
      "▁పగ": 9221,
      "ద్కర్": 9222,
      "▁పెను": 9223,
      "▁సుందర": 9224,
      "సేవ": 9225,
      "▁టీం": 9226,
      "▁టైం": 9227,
      "▁పద్ధతిలో": 9228,
      "▁గ్లోబల్": 9229,
      "▁ఆత్": 9230,
      "▁ఇవ్": 9231,
      "రాస": 9232,
      "త్తే": 9233,
      "▁48": 9234,
      "▁ప్రాధాన్యం": 9235,
      "▁సింహా": 9236,
      "a,": 9237,
      "▁అందిస్తున్న": 9238,
      "▁వేర్వేరు": 9239,
      "గంగా": 9240,
      "షేక": 9241,
      "▁చిన": 9242,
      "ారా.": 9243,
      "ద్రో": 9244,
      "▁బోయ": 9245,
      "▁జరుగుతున్నాయి.": 9246,
      "టప్": 9247,
      "ి...": 9248,
      "▁అవయ": 9249,
      "వర్తన": 9250,
      "▁this": 9251,
      "▁షర్మిల": 9252,
      "▁ఎడమ": 9253,
      "▁నంది": 9254,
      "ట్టింగ్": 9255,
      "▁సానుకూల": 9256,
      "▁బ్యూరో": 9257,
      "▁ఆత": 9258,
      "వాదు": 9259,
      "▁గుర్తుంచు": 9260,
      "▁బహుమతి": 9261,
      "▁ఆన్లైన్లో": 9262,
      "▁పాలనలో": 9263,
      "▁తొలిసారి": 9264,
      "▁కదా.": 9265,
      "90": 9266,
      "▁అచ్చ": 9267,
      "▁నటీ": 9268,
      "▁డయా": 9269,
      "▁బీసీసీఐ": 9270,
      "▁ప్రారంభమైన": 9271,
      "▁సాంస్కృతిక": 9272,
[...]
